{
  "version": "1.0",
  "truncation": null,
  "padding": null,
  "added_tokens": [
    {
      "id": 0,
      "content": "[UNK]",
      "single_word": false,
      "lstrip": false,
      "rstrip": false,
      "normalized": false,
      "special": true
    },
    {
      "id": 1,
      "content": "[PAD]",
      "single_word": false,
      "lstrip": false,
      "rstrip": false,
      "normalized": false,
      "special": true
    },
    {
      "id": 2,
      "content": "[CLS]",
      "single_word": false,
      "lstrip": false,
      "rstrip": false,
      "normalized": false,
      "special": true
    },
    {
      "id": 3,
      "content": "[SEP]",
      "single_word": false,
      "lstrip": false,
      "rstrip": false,
      "normalized": false,
      "special": true
    },
    {
      "id": 4,
      "content": "[MASK]",
      "single_word": false,
      "lstrip": false,
      "rstrip": false,
      "normalized": false,
      "special": true
    }
  ],
  "normalizer": null,
  "pre_tokenizer": {
    "type": "Whitespace"
  },
  "post_processor": null,
  "decoder": null,
  "model": {
    "type": "WordPiece",
    "unk_token": "[UNK]",
    "continuing_subword_prefix": "##",
    "max_input_chars_per_word": 100,
    "vocab": {
      "[UNK]": 0,
      "[PAD]": 1,
      "[CLS]": 2,
      "[SEP]": 3,
      "[MASK]": 4,
      "\u0000": 5,
      "\u0001": 6,
      "\u0002": 7,
      "\u0003": 8,
      "\u0004": 9,
      "\u0005": 10,
      "\u0006": 11,
      "\u0007": 12,
      "\b": 13,
      "\u000e": 14,
      "\u000f": 15,
      "\u0010": 16,
      "\u0011": 17,
      "\u0012": 18,
      "\u0013": 19,
      "\u0014": 20,
      "\u0015": 21,
      "\u0016": 22,
      "\u0017": 23,
      "\u0018": 24,
      "\u0019": 25,
      "\u001a": 26,
      "\u001b": 27,
      "\u001c": 28,
      "\u001d": 29,
      "\u001e": 30,
      "\u001f": 31,
      "!": 32,
      "\"": 33,
      "#": 34,
      "%": 35,
      "&": 36,
      "'": 37,
      "(": 38,
      ")": 39,
      "*": 40,
      "+": 41,
      ",": 42,
      "-": 43,
      ".": 44,
      "/": 45,
      "0": 46,
      "1": 47,
      "2": 48,
      "3": 49,
      "4": 50,
      "5": 51,
      "6": 52,
      "7": 53,
      "8": 54,
      "9": 55,
      ":": 56,
      ";": 57,
      "<": 58,
      "=": 59,
      ">": 60,
      "?": 61,
      "@": 62,
      "A": 63,
      "B": 64,
      "C": 65,
      "D": 66,
      "E": 67,
      "F": 68,
      "G": 69,
      "H": 70,
      "I": 71,
      "J": 72,
      "K": 73,
      "L": 74,
      "M": 75,
      "N": 76,
      "O": 77,
      "P": 78,
      "Q": 79,
      "R": 80,
      "S": 81,
      "T": 82,
      "U": 83,
      "V": 84,
      "W": 85,
      "X": 86,
      "Y": 87,
      "Z": 88,
      "[": 89,
      "]": 90,
      "^": 91,
      "_": 92,
      "`": 93,
      "a": 94,
      "b": 95,
      "c": 96,
      "d": 97,
      "e": 98,
      "f": 99,
      "g": 100,
      "h": 101,
      "i": 102,
      "j": 103,
      "k": 104,
      "l": 105,
      "m": 106,
      "n": 107,
      "o": 108,
      "p": 109,
      "q": 110,
      "r": 111,
      "s": 112,
      "t": 113,
      "u": 114,
      "v": 115,
      "w": 116,
      "x": 117,
      "y": 118,
      "z": 119,
      "{": 120,
      "~": 121,
      "": 122,
      "": 123,
      "": 124,
      "": 125,
      "": 126,
      "": 127,
      "": 128,
      "¤": 129,
      "ª": 130,
      "¬": 131,
      "°": 132,
      "±": 133,
      "µ": 134,
      "·": 135,
      "»": 136,
      "À": 137,
      "Æ": 138,
      "É": 139,
      "×": 140,
      "Ø": 141,
      "Ù": 142,
      "Ý": 143,
      "Þ": 144,
      "ß": 145,
      "à": 146,
      "æ": 147,
      "ç": 148,
      "î": 149,
      "ï": 150,
      "ñ": 151,
      "ý": 152,
      "Ć": 153,
      "ę": 154,
      "Ĩ": 155,
      "ı": 156,
      "Ł": 157,
      "Ŧ": 158,
      "Ƙ": 159,
      "ƞ": 160,
      "Ư": 161,
      "ȝ": 162,
      "Ȟ": 163,
      "Ȩ": 164,
      "Ȫ": 165,
      "ȹ": 166,
      "ɓ": 167,
      "ɜ": 168,
      "ɦ": 169,
      "ɮ": 170,
      "ʣ": 171,
      "ʳ": 172,
      "˕": 173,
      "˗": 174,
      "˚": 175,
      "˜": 176,
      "̛": 177,
      "̬": 178,
      "̹": 179,
      "̀": 180,
      "͏": 181,
      "α": 182,
      "Ϝ": 183,
      "ϱ": 184,
      "Ю": 185,
      "о": 186,
      "р": 187,
      "э": 188,
      "ѐ": 189,
      "Ѩ": 190,
      "ѱ": 191,
      "ѹ": 192,
      "Ѽ": 193,
      "҃": 194,
      "҅": 195,
      "Ҋ": 196,
      "Ҕ": 197,
      "ҙ": 198,
      "ҟ": 199,
      "Ү": 200,
      "Ҳ": 201,
      "Ҵ": 202,
      "ҵ": 203,
      "Ҷ": 204,
      "ҷ": 205,
      "Ә": 206,
      "Ӛ": 207,
      "Ӝ": 208,
      "ӝ": 209,
      "ө": 210,
      "ӭ": 211,
      "ԋ": 212,
      "ԙ": 213,
      "԰": 214,
      "Ո": 215,
      "Չ": 216,
      "Ռ": 217,
      "Ր": 218,
      "ղ": 219,
      "֔": 220,
      "֙": 221,
      "ֳ": 222,
      "׊": 223,
      "ח": 224,
      "י": 225,
      "מ": 226,
      "פ": 227,
      "ץ": 228,
      "׮": 229,
      "ױ": 230,
      "׵": 231,
      "׼": 232,
      "؀": 233,
      "،": 234,
      "ح": 235,
      "د": 236,
      "ز": 237,
      "ؼ": 238,
      "٘": 239,
      "١": 240,
      "٧": 241,
      "ٲ": 242,
      "ٳ": 243,
      "ٹ": 244,
      "چ": 245,
      "ژ": 246,
      "ڤ": 247,
      "ڳ": 248,
      "ۄ": 249,
      "ۅ": 250,
      "ۉ": 251,
      "ی": 252,
      "ۘ": 253,
      "۹": 254,
      "۽": 255,
      "ܖ": 256,
      "ܜ": 257,
      "ܟ": 258,
      "ܳ": 259,
      "ܵ": 260,
      "ܶ": 261,
      "ܹ": 262,
      "ܻ": 263,
      "ܿ": 264,
      "݅": 265,
      "݇": 266,
      "ݎ": 267,
      "ݫ": 268,
      "ݴ": 269,
      "ݶ": 270,
      "ݺ": 271,
      "ݼ": 272,
      "ݽ": 273,
      "ޖ": 274,
      "ޙ": 275,
      "ޛ": 276,
      "ޜ": 277,
      "ޝ": 278,
      "ޢ": 279,
      "ީ": 280,
      "޷": 281,
      "޹": 282,
      "߂": 283,
      "߄": 284,
      "߉": 285,
      "ߊ": 286,
      "ߋ": 287,
      "ߑ": 288,
      "ߒ": 289,
      "ߗ": 290,
      "ߟ": 291,
      "ߣ": 292,
      "ߤ": 293,
      "߹": 294,
      "߽": 295,
      "ࠁ": 296,
      "ࠗ": 297,
      "ࠛ": 298,
      "࠺": 299,
      "ࡅ": 300,
      "ࡵ": 301,
      "ࡸ": 302,
      "ࡼ": 303,
      "ࢎ": 304,
      "࢚": 305,
      "࢜": 306,
      "ࢢ": 307,
      "ࢲ": 308,
      "ࢶ": 309,
      "ࢿ": 310,
      "ࣁ": 311,
      "ࣗ": 312,
      "ࣘ": 313,
      "ࣲ": 314,
      "ࣸ": 315,
      "ࣻ": 316,
      "ऑ": 317,
      "झ": 318,
      "ञ": 319,
      "ट": 320,
      "ण": 321,
      "द": 322,
      "ध": 323,
      "न": 324,
      "प": 325,
      "ब": 326,
      "य": 327,
      "र": 328,
      "े": 329,
      "॔": 330,
      "ड़": 331,
      "ই": 332,
      "ঊ": 333,
      "ন": 334,
      "ী": 335,
      "ৈ": 336,
      "৔": 337,
      "ৡ": 338,
      "০": 339,
      "৬": 340,
      "৽": 341,
      "ਃ": 342,
      "ਊ": 343,
      "਋": 344,
      "ਗ": 345,
      "ਙ": 346,
      "ਤ": 347,
      "ਵ": 348,
      "਷": 349,
      "ਸ": 350,
      "਽": 351,
      "ੂ": 352,
      "੄": 353,
      "ੇ": 354,
      "੉": 355,
      "੊": 356,
      "ੋ": 357,
      "ੌ": 358,
      "੍": 359,
      "੓": 360,
      "੗": 361,
      "੘": 362,
      "ਖ਼": 363,
      "੡": 364,
      "੢": 365,
      "੩": 366,
      "ੰ": 367,
      "੹": 368,
      "੽": 369,
      "੿": 370,
      "ઁ": 371,
      "ં": 372,
      "ઓ": 373,
      "઱": 374,
      "ૐ": 375,
      "૑": 376,
      "૓": 377,
      "૕": 378,
      "૘": 379,
      "૯": 380,
      "଀": 381,
      "ଃ": 382,
      "ଉ": 383,
      "ଥ": 384,
      "ୃ": 385,
      "୒": 386,
      "୪": 387,
      "୹": 388,
      "ஂ": 389,
      "ட": 390,
      "வ": 391,
      "ா": 392,
      "ఀ": 393,
      "ౙ": 394,
      "ౝ": 395,
      "౟": 396,
      "ౠ": 397,
      "౿": 398,
      "಑": 399,
      "ಕ": 400,
      "ನ": 401,
      "ಪ": 402,
      "ಭ": 403,
      "ಯ": 404,
      "ಱ": 405,
      "ಸ": 406,
      "ೂ": 407,
      "೐": 408,
      "ೖ": 409,
      "ೞ": 410,
      "ೠ": 411,
      "ೡ": 412,
      "ೢ": 413,
      "ೣ": 414,
      "೧": 415,
      "೯": 416,
      "ೲ": 417,
      "ഃ": 418,
      "അ": 419,
      "ഊ": 420,
      "ഐ": 421,
      "ക": 422,
      "ച": 423,
      "ഝ": 424,
      "ഡ": 425,
      "ഥ": 426,
      "ദ": 427,
      "ധ": 428,
      "൞": 429,
      "ජ": 430,
      "෥": 431,
      "ຌ": 432,
      "຦": 433,
      "຺": 434,
      "࿙": 435,
      "ြ": 436,
      "ᅅ": 437,
      "ᅕ": 438,
      "ᅖ": 439,
      "ᅤ": 440,
      "ᆌ": 441,
      "ᇕ": 442,
      "ᇗ": 443,
      "ᇞ": 444,
      "ᇟ": 445,
      "ᇨ": 446,
      "ᇯ": 447,
      "ሑ": 448,
      "ሓ": 449,
      "ሔ": 450,
      "ሕ": 451,
      "ሙ": 452,
      "ሜ": 453,
      "ም": 454,
      "ሢ": 455,
      "ሥ": 456,
      "ሦ": 457,
      "ሧ": 458,
      "ሩ": 459,
      "ኄ": 460,
      "ኅ": 461,
      "ጇ": 462,
      "ጔ": 463,
      "ጡ": 464,
      "ፅ": 465,
      "ፊ": 466,
      "፛": 467,
      "፵": 468,
      "፻": 469,
      "Ꮤ": 470,
      "Ꮻ": 471,
      "ᐅ": 472,
      "ᐌ": 473,
      "ᑰ": 474,
      "ᑸ": 475,
      "ᓐ": 476,
      "ᓣ": 477,
      "ᓽ": 478,
      "ᔁ": 479,
      "ᕜ": 480,
      "ᖧ": 481,
      "ᗁ": 482,
      "ᗘ": 483,
      "ᗝ": 484,
      "ᗡ": 485,
      "ᗲ": 486,
      "ᜑ": 487,
      "᜕": 488,
      "᜜": 489,
      "ᜯ": 490,
      "ᜱ": 491,
      "ᝉ": 492,
      "ᝍ": 493,
      "ឩ": 494,
      "០": 495,
      "៳": 496,
      "៵": 497,
      "៼": 498,
      "៽": 499,
      "᠍": 500,
      "ᠴ": 501,
      "ᡐ": 502,
      "ᡨ": 503,
      "ᡬ": 504,
      "ᡭ": 505,
      "ᡰ": 506,
      "ᢄ": 507,
      "ᢈ": 508,
      "ᢌ": 509,
      "ᢝ": 510,
      "ᣠ": 511,
      "᣸": 512,
      "᣼": 513,
      "ᤥ": 514,
      "ᤰ": 515,
      "᥈": 516,
      "ᥝ": 517,
      "ᥨ": 518,
      "ᦷ": 519,
      "ᦸ": 520,
      "᧕": 521,
      "᧘": 522,
      "᧴": 523,
      "᧼": 524,
      "ᩄ": 525,
      "ᩛ": 526,
      "᩟": 527,
      "ᩰ": 528,
      "ᩱ": 529,
      "᩵": 530,
      "᩹": 531,
      "᪀": 532,
      "᪘": 533,
      "᪸": 534,
      "᫋": 535,
      "᫓": 536,
      "᫥": 537,
      "᫦": 538,
      "᫧": 539,
      "᫺": 540,
      "ᬁ": 541,
      "᭕": 542,
      "ᯇ": 543,
      "ᯡ": 544,
      "᲋": 545,
      "Ქ": 546,
      "Ჩ": 547,
      "Ჭ": 548,
      "ᴜ": 549,
      "ᴤ": 550,
      "ᴸ": 551,
      "ᴺ": 552,
      "ᶠ": 553,
      "ᶤ": 554,
      "ᶥ": 555,
      "ᶨ": 556,
      "ᶬ": 557,
      "᷌": 558,
      "ᷨ": 559,
      "ᷬ": 560,
      "᷹": 561,
      "Ḁ": 562,
      "ẅ": 563,
      "Ằ": 564,
      "Ễ": 565,
      "Ờ": 566,
      "Ỽ": 567,
      "ἤ": 568,
      "ἴ": 569,
      "ὅ": 570,
      "Ὄ": 571,
      "ὐ": 572,
      "὘": 573,
      "὜": 574,
      "ὡ": 575,
      "Ὠ": 576,
      "ώ": 577,
      "὿": 578,
      "ᾁ": 579,
      "ᾋ": 580,
      "ᾎ": 581,
      "ᾙ": 582,
      "ᾟ": 583,
      "ᾶ": 584,
      "Ᾱ": 585,
      "ῑ": 586,
      "ΐ": 587,
      "ῠ": 588,
      "Ὸ": 589,
      "–": 590,
      "‘": 591,
      "’": 592,
      "•": 593,
      "‣": 594,
      "…": 595,
      "‧": 596,
      "‬": 597,
      "※": 598,
      "⁝": 599,
      "⁲": 600,
      "⁹": 601,
      "ⁿ": 602,
      "₁": 603,
      "₃": 604,
      "ₙ": 605,
      "₝": 606,
      "₳": 607,
      "⃍": 608,
      "⃏": 609,
      "⃘": 610,
      "⃩": 611,
      "⃪": 612,
      "℃": 613,
      "℅": 614,
      "ℇ": 615,
      "℉": 616,
      "ℍ": 617,
      "ℚ": 618,
      "℡": 619,
      "℧": 620,
      "Å": 621,
      "ℽ": 622,
      "ℿ": 623,
      "⅁": 624,
      "ⅅ": 625,
      "⅓": 626,
      "⅔": 627,
      "⅙": 628,
      "⅚": 629,
      "Ⅰ": 630,
      "Ⅱ": 631,
      "Ⅲ": 632,
      "Ⅳ": 633,
      "Ⅾ": 634,
      "ⅵ": 635,
      "↑": 636,
      "→": 637,
      "↓": 638,
      "↘": 639,
      "↜": 640,
      "↳": 641,
      "⇄": 642,
      "⇊": 643,
      "⇋": 644,
      "⇍": 645,
      "⇒": 646,
      "⇚": 647,
      "⇞": 648,
      "⇥": 649,
      "∹": 650,
      "≷": 651,
      "⊄": 652,
      "⊅": 653,
      "⊈": 654,
      "⊔": 655,
      "⊠": 656,
      "⊫": 657,
      "⋀": 658,
      "⋅": 659,
      "⋉": 660,
      "⋦": 661,
      "⋬": 662,
      "⋲": 663,
      "⋴": 664,
      "⋷": 665,
      "⌁": 666,
      "⌥": 667,
      "⌦": 668,
      "⌭": 669,
      "⌴": 670,
      "⍁": 671,
      "⍈": 672,
      "⍌": 673,
      "⍤": 674,
      "⍪": 675,
      "⍮": 676,
      "⍯": 677,
      "⍳": 678,
      "⍵": 679,
      "⍹": 680,
      "⍿": 681,
      "⎀": 682,
      "⎄": 683,
      "⎉": 684,
      "⎊": 685,
      "⏌": 686,
      "⏐": 687,
      "⏔": 688,
      "⏤": 689,
      "⏧": 690,
      "⏬": 691,
      "⏰": 692,
      "⏱": 693,
      "⏴": 694,
      "␤": 695,
      "␧": 696,
      "␨": 697,
      "␱": 698,
      "⑀": 699,
      "⑘": 700,
      "①": 701,
      "②": 702,
      "③": 703,
      "④": 704,
      "⑤": 705,
      "⑥": 706,
      "⑦": 707,
      "⑧": 708,
      "⑨": 709,
      "⑩": 710,
      "⑮": 711,
      "⑱": 712,
      "⑴": 713,
      "⒌": 714,
      "⒍": 715,
      "⒬": 716,
      "⒰": 717,
      "⒴": 718,
      "Ⓔ": 719,
      "Ⓞ": 720,
      "Ⓦ": 721,
      "Ⓧ": 722,
      "ⓐ": 723,
      "ⓒ": 724,
      "ⓖ": 725,
      "ⓚ": 726,
      "┠": 727,
      "╙": 728,
      "╜": 729,
      "╢": 730,
      "╩": 731,
      "╴": 732,
      "▐": 733,
      "■": 734,
      "▨": 735,
      "▲": 736,
      "△": 737,
      "▶": 738,
      "▼": 739,
      "◀": 740,
      "◆": 741,
      "◇": 742,
      "○": 743,
      "●": 744,
      "◤": 745,
      "◬": 746,
      "★": 747,
      "☍": 748,
      "☎": 749,
      "☔": 750,
      "☞": 751,
      "☥": 752,
      "☴": 753,
      "☸": 754,
      "♣": 755,
      "♥": 756,
      "♭": 757,
      "♶": 758,
      "⚷": 759,
      "⛭": 760,
      "⛸": 761,
      "✀": 762,
      "✐": 763,
      "✑": 764,
      "✜": 765,
      "✩": 766,
      "❝": 767,
      "❥": 768,
      "➗": 769,
      "➜": 770,
      "➱": 771,
      "➻": 772,
      "⟈": 773,
      "⟸": 774,
      "⠈": 775,
      "⠔": 776,
      "⡰": 777,
      "⡷": 778,
      "⢀": 779,
      "⢁": 780,
      "⢄": 781,
      "⢈": 782,
      "⢑": 783,
      "⢗": 784,
      "⢘": 785,
      "⢡": 786,
      "⢤": 787,
      "⢮": 788,
      "⢹": 789,
      "⣜": 790,
      "⤘": 791,
      "⤹": 792,
      "⥄": 793,
      "⥌": 794,
      "⥜": 795,
      "⥨": 796,
      "⥬": 797,
      "⥼": 798,
      "⥽": 799,
      "⧘": 800,
      "⧨": 801,
      "⧴": 802,
      "⧾": 803,
      "⨈": 804,
      "⨨": 805,
      "⨲": 806,
      "⩈": 807,
      "⩎": 808,
      "⩠": 809,
      "⪌": 810,
      "⪜": 811,
      "⪥": 812,
      "⪵": 813,
      "⫹": 814,
      "⬤": 815,
      "⬥": 816,
      "⬯": 817,
      "⬹": 818,
      "⭃": 819,
      "⭴": 820,
      "⭵": 821,
      "⮬": 822,
      "⮰": 823,
      "⮺": 824,
      "⮽": 825,
      "⯁": 826,
      "ⰱ": 827,
      "ⱛ": 828,
      "ⱴ": 829,
      "ⲁ": 830,
      "Ⲕ": 831,
      "ⳉ": 832,
      "ⳙ": 833,
      "ⴔ": 834,
      "ⴘ": 835,
      "⴩": 836,
      "ⴵ": 837,
      "ⴸ": 838,
      "ⵅ": 839,
      "ⵐ": 840,
      "ⵡ": 841,
      "ⵥ": 842,
      "ⶁ": 843,
      "ⶄ": 844,
      "ⶌ": 845,
      "⶙": 846,
      "ⷴ": 847,
      "⸀": 848,
      "⸁": 849,
      "⸐": 850,
      "⸰": 851,
      "⹨": 852,
      "⺀": 853,
      "⺩": 854,
      "⺬": 855,
      "⺽": 856,
      "⻄": 857,
      "⻜": 858,
      "⻠": 859,
      "⻡": 860,
      "⻰": 861,
      "⼋": 862,
      "⼌": 863,
      "⼍": 864,
      "⼘": 865,
      "⼟": 866,
      "⼡": 867,
      "⼢": 868,
      "⼣": 869,
      "⼥": 870,
      "⼲": 871,
      "⼸": 872,
      "⼽": 873,
      "⽈": 874,
      "⽐": 875,
      "⾅": 876,
      "⾙": 877,
      "⾡": 878,
      "⾣": 879,
      "⿀": 880,
      "⿆": 881,
      "⿇": 882,
      "⿍": 883,
      "⿜": 884,
      "⿤": 885,
      "⿼": 886,
      "、": 887,
      "。": 888,
      "「": 889,
      "」": 890,
      "『": 891,
      "』": 892,
      "【": 893,
      "】": 894,
      "〝": 895,
      "〰": 896,
      "ぁ": 897,
      "ざ": 898,
      "と": 899,
      "ぷ": 900,
      "ろ": 901,
      "キ": 902,
      "サ": 903,
      "チ": 904,
      "ナ": 905,
      "ノ": 906,
      "バ": 907,
      "ボ": 908,
      "ミ": 909,
      "モ": 910,
      "ラ": 911,
      "ン": 912,
      "ヴ": 913,
      "ㄉ": 914,
      "ㄌ": 915,
      "ㄐ": 916,
      "ㄖ": 917,
      "ㄬ": 918,
      "ㅁ": 919,
      "ㅇ": 920,
      "ㅈ": 921,
      "ㅏ": 922,
      "ㅓ": 923,
      "ㆍ": 924,
      "㆔": 925,
      "㆕": 926,
      "㆖": 927,
      "㆘": 928,
      "㆙": 929,
      "㆚": 930,
      "㆛": 931,
      "㆜": 932,
      "ㆩ": 933,
      "ㆰ": 934,
      "ㆸ": 935,
      "ㆼ": 936,
      "㇈": 937,
      "㇞": 938,
      "㇧": 939,
      "ㇹ": 940,
      "ㇾ": 941,
      "㈜": 942,
      "㈡": 943,
      "㈭": 944,
      "㈸": 945,
      "㉀": 946,
      "㉔": 947,
      "㉕": 948,
      "㉘": 949,
      "㉩": 950,
      "㉰": 951,
      "㉸": 952,
      "㉼": 953,
      "㊀": 954,
      "㊐": 955,
      "㊓": 956,
      "㊔": 957,
      "㊘": 958,
      "㊜": 959,
      "㊠": 960,
      "㊢": 961,
      "㊥": 962,
      "㊬": 963,
      "㊭": 964,
      "㋇": 965,
      "㋈": 966,
      "㋉": 967,
      "㋊": 968,
      "㋋": 969,
      "㋌": 970,
      "㋍": 971,
      "㋎": 972,
      "㋏": 973,
      "㋐": 974,
      "㋠": 975,
      "㌁": 976,
      "㌇": 977,
      "㌑": 978,
      "㌕": 979,
      "㌘": 980,
      "㌙": 981,
      "㌜": 982,
      "㌥": 983,
      "㌸": 984,
      "㍕": 985,
      "㍗": 986,
      "㍘": 987,
      "㍙": 988,
      "㍠": 989,
      "㍸": 990,
      "㍹": 991,
      "㍼": 992,
      "㍾": 993,
      "㎂": 994,
      "㎅": 995,
      "㎆": 996,
      "㎉": 997,
      "㎏": 998,
      "㎑": 999,
      "㎒": 1000,
      "㎓": 1001,
      "㎜": 1002,
      "㎝": 1003,
      "㎞": 1004,
      "㎡": 1005,
      "㎢": 1006,
      "㎤": 1007,
      "㎥": 1008,
      "㎬": 1009,
      "㎶": 1010,
      "㎾": 1011,
      "㏀": 1012,
      "㏁": 1013,
      "㏄": 1014,
      "㏎": 1015,
      "㏏": 1016,
      "㏒": 1017,
      "㏓": 1018,
      "㏜": 1019,
      "㏠": 1020,
      "㏤": 1021,
      "㏥": 1022,
      "㏨": 1023,
      "㏰": 1024,
      "㏲": 1025,
      "㏸": 1026,
      "㐄": 1027,
      "㐈": 1028,
      "㐍": 1029,
      "㐔": 1030,
      "㐤": 1031,
      "㐩": 1032,
      "㐪": 1033,
      "㑘": 1034,
      "㑢": 1035,
      "㑩": 1036,
      "㑬": 1037,
      "㑰": 1038,
      "㑽": 1039,
      "㒄": 1040,
      "㒐": 1041,
      "㓁": 1042,
      "㓈": 1043,
      "㔈": 1044,
      "㔔": 1045,
      "㕴": 1046,
      "㘨": 1047,
      "㘩": 1048,
      "㚙": 1049,
      "㚡": 1050,
      "㜰": 1051,
      "㝅": 1052,
      "㝡": 1053,
      "㞘": 1054,
      "㞠": 1055,
      "㞤": 1056,
      "㞵": 1057,
      "㠌": 1058,
      "㠐": 1059,
      "㠑": 1060,
      "㠖": 1061,
      "㠚": 1062,
      "㠜": 1063,
      "㠡": 1064,
      "㠥": 1065,
      "㡼": 1066,
      "㢆": 1067,
      "㢐": 1068,
      "㢑": 1069,
      "㢘": 1070,
      "㢜": 1071,
      "㢥": 1072,
      "㢬": 1073,
      "㢭": 1074,
      "㣭": 1075,
      "㣶": 1076,
      "㤁": 1077,
      "㤕": 1078,
      "㤨": 1079,
      "㤮": 1080,
      "㤽": 1081,
      "㥠": 1082,
      "㥨": 1083,
      "㥱": 1084,
      "㥸": 1085,
      "㦂": 1086,
      "㨄": 1087,
      "㨎": 1088,
      "㩁": 1089,
      "㩃": 1090,
      "㩆": 1091,
      "㩊": 1092,
      "㩎": 1093,
      "㩓": 1094,
      "㩽": 1095,
      "㪚": 1096,
      "㪜": 1097,
      "㪷": 1098,
      "㪸": 1099,
      "㫛": 1100,
      "㫠": 1101,
      "㭵": 1102,
      "㮞": 1103,
      "㯀": 1104,
      "㯈": 1105,
      "㯎": 1106,
      "㯴": 1107,
      "㯻": 1108,
      "㯿": 1109,
      "㰀": 1110,
      "㱉": 1111,
      "㱔": 1112,
      "㱤": 1113,
      "㱰": 1114,
      "㱱": 1115,
      "㱴": 1116,
      "㱸": 1117,
      "㲌": 1118,
      "㲨": 1119,
      "㳱": 1120,
      "㳴": 1121,
      "㳼": 1122,
      "㴘": 1123,
      "㴥": 1124,
      "㴨": 1125,
      "㴭": 1126,
      "㴴": 1127,
      "㴸": 1128,
      "㵈": 1129,
      "㵍": 1130,
      "㵐": 1131,
      "㵔": 1132,
      "㵘": 1133,
      "㵞": 1134,
      "㵡": 1135,
      "㵽": 1136,
      "㶀": 1137,
      "㶄": 1138,
      "㶈": 1139,
      "㶜": 1140,
      "㶤": 1141,
      "㶥": 1142,
      "㷀": 1143,
      "㷄": 1144,
      "㷈": 1145,
      "㷋": 1146,
      "㷐": 1147,
      "㷔": 1148,
      "㷕": 1149,
      "㷜": 1150,
      "㷫": 1151,
      "㷴": 1152,
      "㷸": 1153,
      "㷼": 1154,
      "㷾": 1155,
      "㸀": 1156,
      "㸄": 1157,
      "㸈": 1158,
      "㸌": 1159,
      "㸓": 1160,
      "㸔": 1161,
      "㸕": 1162,
      "㸘": 1163,
      "㸚": 1164,
      "㸝": 1165,
      "㸞": 1166,
      "㸢": 1167,
      "㸩": 1168,
      "㸬": 1169,
      "㸰": 1170,
      "㸴": 1171,
      "㸾": 1172,
      "㹤": 1173,
      "㹮": 1174,
      "㺁": 1175,
      "㺅": 1176,
      "㺈": 1177,
      "㺎": 1178,
      "㺕": 1179,
      "㺙": 1180,
      "㺝": 1181,
      "㺠": 1182,
      "㺧": 1183,
      "㺬": 1184,
      "㺮": 1185,
      "㺵": 1186,
      "㺸": 1187,
      "㺹": 1188,
      "㻂": 1189,
      "㻉": 1190,
      "㻔": 1191,
      "㻘": 1192,
      "㻜": 1193,
      "㻢": 1194,
      "㻤": 1195,
      "㻦": 1196,
      "㻰": 1197,
      "㻱": 1198,
      "㻴": 1199,
      "㻺": 1200,
      "㻾": 1201,
      "㼅": 1202,
      "㼉": 1203,
      "㼌": 1204,
      "㼖": 1205,
      "㼠": 1206,
      "㼩": 1207,
      "㼪": 1208,
      "㼫": 1209,
      "㼭": 1210,
      "㽜": 1211,
      "㽡": 1212,
      "㽤": 1213,
      "㽫": 1214,
      "㽮": 1215,
      "㽱": 1216,
      "㽵": 1217,
      "㽼": 1218,
      "㽿": 1219,
      "㾀": 1220,
      "㾕": 1221,
      "㿋": 1222,
      "㿌": 1223,
      "㿐": 1224,
      "㿗": 1225,
      "㿾": 1226,
      "䀎": 1227,
      "䀚": 1228,
      "䀺": 1229,
      "䁀": 1230,
      "䁄": 1231,
      "䁅": 1232,
      "䁇": 1233,
      "䁎": 1234,
      "䁏": 1235,
      "䁔": 1236,
      "䁕": 1237,
      "䁙": 1238,
      "䁚": 1239,
      "䁛": 1240,
      "䁜": 1241,
      "䁥": 1242,
      "䁦": 1243,
      "䁩": 1244,
      "䁪": 1245,
      "䁱": 1246,
      "䁼": 1247,
      "䂂": 1248,
      "䂄": 1249,
      "䂉": 1250,
      "䂔": 1251,
      "䂥": 1252,
      "䃔": 1253,
      "䃽": 1254,
      "䄠": 1255,
      "䄪": 1256,
      "䄮": 1257,
      "䄱": 1258,
      "䄸": 1259,
      "䄻": 1260,
      "䄿": 1261,
      "䅔": 1262,
      "䅕": 1263,
      "䅹": 1264,
      "䅼": 1265,
      "䇀": 1266,
      "䇄": 1267,
      "䇕": 1268,
      "䉁": 1269,
      "䉬": 1270,
      "䉻": 1271,
      "䊄": 1272,
      "䊰": 1273,
      "䊼": 1274,
      "䋈": 1275,
      "䋢": 1276,
      "䋣": 1277,
      "䋩": 1278,
      "䋴": 1279,
      "䌋": 1280,
      "䌓": 1281,
      "䌝": 1282,
      "䌞": 1283,
      "䌠": 1284,
      "䌨": 1285,
      "䌴": 1286,
      "䎘": 1287,
      "䎜": 1288,
      "䎡": 1289,
      "䎤": 1290,
      "䎧": 1291,
      "䏠": 1292,
      "䏹": 1293,
      "䏼": 1294,
      "䐀": 1295,
      "䐆": 1296,
      "䐍": 1297,
      "䐗": 1298,
      "䐠": 1299,
      "䑨": 1300,
      "䒼": 1301,
      "䓜": 1302,
      "䓝": 1303,
      "䓴": 1304,
      "䓸": 1305,
      "䕈": 1306,
      "䕒": 1307,
      "䖀": 1308,
      "䖸": 1309,
      "䗔": 1310,
      "䙠": 1311,
      "䚸": 1312,
      "䛰": 1313,
      "䜤": 1314,
      "䝡": 1315,
      "䞴": 1316,
      "䟠": 1317,
      "䠤": 1318,
      "䢐": 1319,
      "䢘": 1320,
      "䢚": 1321,
      "䢫": 1322,
      "䢰": 1323,
      "䤕": 1324,
      "䤼": 1325,
      "䤽": 1326,
      "䦌": 1327,
      "䦐": 1328,
      "䨜": 1329,
      "䨼": 1330,
      "䩠": 1331,
      "䩬": 1332,
      "䪓": 1333,
      "䫸": 1334,
      "䬘": 1335,
      "䬢": 1336,
      "䬩": 1337,
      "䭌": 1338,
      "䭖": 1339,
      "䮼": 1340,
      "䯜": 1341,
      "䯝": 1342,
      "䯠": 1343,
      "䯭": 1344,
      "䯱": 1345,
      "䯸": 1346,
      "䰩": 1347,
      "䱌": 1348,
      "䱜": 1349,
      "䱤": 1350,
      "䲠": 1351,
      "䲸": 1352,
      "䲼": 1353,
      "䳌": 1354,
      "䳍": 1355,
      "䳓": 1356,
      "䳘": 1357,
      "䳳": 1358,
      "䵈": 1359,
      "䵌": 1360,
      "䵱": 1361,
      "䵻": 1362,
      "䶢": 1363,
      "䶨": 1364,
      "䶭": 1365,
      "䶸": 1366,
      "䷉": 1367,
      "一": 1368,
      "三": 1369,
      "上": 1370,
      "下": 1371,
      "不": 1372,
      "中": 1373,
      "主": 1374,
      "之": 1375,
      "乙": 1376,
      "也": 1377,
      "乾": 1378,
      "亂": 1379,
      "事": 1380,
      "二": 1381,
      "交": 1382,
      "享": 1383,
      "京": 1384,
      "亭": 1385,
      "人": 1386,
      "仁": 1387,
      "仇": 1388,
      "今": 1389,
      "他": 1390,
      "代": 1391,
      "令": 1392,
      "以": 1393,
      "伊": 1394,
      "伐": 1395,
      "休": 1396,
      "佛": 1397,
      "作": 1398,
      "使": 1399,
      "來": 1400,
      "係": 1401,
      "俸": 1402,
      "倉": 1403,
      "側": 1404,
      "備": 1405,
      "像": 1406,
      "價": 1407,
      "儉": 1408,
      "儒": 1409,
      "允": 1410,
      "元": 1411,
      "先": 1412,
      "光": 1413,
      "內": 1414,
      "全": 1415,
      "兩": 1416,
      "公": 1417,
      "六": 1418,
      "共": 1419,
      "兵": 1420,
      "其": 1421,
      "兼": 1422,
      "冊": 1423,
      "出": 1424,
      "函": 1425,
      "分": 1426,
      "刑": 1427,
      "初": 1428,
      "利": 1429,
      "制": 1430,
      "則": 1431,
      "前": 1432,
      "剛": 1433,
      "副": 1434,
      "創": 1435,
      "劍": 1436,
      "力": 1437,
      "加": 1438,
      "動": 1439,
      "勝": 1440,
      "勢": 1441,
      "勤": 1442,
      "勳": 1443,
      "勿": 1444,
      "化": 1445,
      "北": 1446,
      "十": 1447,
      "半": 1448,
      "卑": 1449,
      "協": 1450,
      "南": 1451,
      "卽": 1452,
      "卿": 1453,
      "厚": 1454,
      "又": 1455,
      "友": 1456,
      "反": 1457,
      "口": 1458,
      "可": 1459,
      "史": 1460,
      "合": 1461,
      "同": 1462,
      "名": 1463,
      "后": 1464,
      "向": 1465,
      "君": 1466,
      "吳": 1467,
      "命": 1468,
      "和": 1469,
      "咸": 1470,
      "唐": 1471,
      "啓": 1472,
      "善": 1473,
      "單": 1474,
      "囚": 1475,
      "四": 1476,
      "因": 1477,
      "國": 1478,
      "園": 1479,
      "圓": 1480,
      "圖": 1481,
      "地": 1482,
      "坤": 1483,
      "城": 1484,
      "報": 1485,
      "場": 1486,
      "墜": 1487,
      "墨": 1488,
      "士": 1489,
      "壺": 1490,
      "外": 1491,
      "大": 1492,
      "天": 1493,
      "太": 1494,
      "夫": 1495,
      "奇": 1496,
      "奉": 1497,
      "奎": 1498,
      "女": 1499,
      "如": 1500,
      "姿": 1501,
      "威": 1502,
      "子": 1503,
      "存": 1504,
      "孝": 1505,
      "學": 1506,
      "宅": 1507,
      "安": 1508,
      "宗": 1509,
      "官": 1510,
      "定": 1511,
      "客": 1512,
      "宮": 1513,
      "家": 1514,
      "容": 1515,
      "寂": 1516,
      "寇": 1517,
      "富": 1518,
      "寡": 1519,
      "實": 1520,
      "寧": 1521,
      "寬": 1522,
      "寶": 1523,
      "射": 1524,
      "將": 1525,
      "尉": 1526,
      "對": 1527,
      "小": 1528,
      "少": 1529,
      "尺": 1530,
      "屛": 1531,
      "屯": 1532,
      "山": 1533,
      "岡": 1534,
      "島": 1535,
      "崔": 1536,
      "嶺": 1537,
      "川": 1538,
      "州": 1539,
      "巡": 1540,
      "工": 1541,
      "左": 1542,
      "己": 1543,
      "已": 1544,
      "巳": 1545,
      "巷": 1546,
      "市": 1547,
      "布": 1548,
      "師": 1549,
      "常": 1550,
      "平": 1551,
      "年": 1552,
      "庫": 1553,
      "庸": 1554,
      "廛": 1555,
      "式": 1556,
      "弘": 1557,
      "弛": 1558,
      "張": 1559,
      "强": 1560,
      "彈": 1561,
      "形": 1562,
      "役": 1563,
      "彼": 1564,
      "往": 1565,
      "待": 1566,
      "後": 1567,
      "得": 1568,
      "御": 1569,
      "心": 1570,
      "必": 1571,
      "忍": 1572,
      "忠": 1573,
      "思": 1574,
      "性": 1575,
      "恃": 1576,
      "恐": 1577,
      "恤": 1578,
      "悅": 1579,
      "患": 1580,
      "情": 1581,
      "惡": 1582,
      "惰": 1583,
      "意": 1584,
      "愛": 1585,
      "感": 1586,
      "愼": 1587,
      "慶": 1588,
      "應": 1589,
      "懲": 1590,
      "戊": 1591,
      "我": 1592,
      "戰": 1593,
      "所": 1594,
      "手": 1595,
      "承": 1596,
      "技": 1597,
      "投": 1598,
      "拂": 1599,
      "挑": 1600,
      "捷": 1601,
      "排": 1602,
      "掠": 1603,
      "提": 1604,
      "換": 1605,
      "擊": 1606,
      "操": 1607,
      "支": 1608,
      "攻": 1609,
      "放": 1610,
      "政": 1611,
      "故": 1612,
      "敎": 1613,
      "救": 1614,
      "敦": 1615,
      "敬": 1616,
      "敵": 1617,
      "數": 1618,
      "文": 1619,
      "新": 1620,
      "斷": 1621,
      "於": 1622,
      "施": 1623,
      "旗": 1624,
      "日": 1625,
      "旬": 1626,
      "昌": 1627,
      "明": 1628,
      "春": 1629,
      "是": 1630,
      "時": 1631,
      "晦": 1632,
      "智": 1633,
      "曜": 1634,
      "書": 1635,
      "會": 1636,
      "月": 1637,
      "服": 1638,
      "朗": 1639,
      "期": 1640,
      "木": 1641,
      "本": 1642,
      "李": 1643,
      "東": 1644,
      "果": 1645,
      "架": 1646,
      "柱": 1647,
      "柳": 1648,
      "栗": 1649,
      "校": 1650,
      "梁": 1651,
      "業": 1652,
      "榜": 1653,
      "榮": 1654,
      "樂": 1655,
      "橋": 1656,
      "權": 1657,
      "欲": 1658,
      "止": 1659,
      "正": 1660,
      "此": 1661,
      "武": 1662,
      "歸": 1663,
      "死": 1664,
      "殷": 1665,
      "殿": 1666,
      "毋": 1667,
      "毖": 1668,
      "毛": 1669,
      "民": 1670,
      "氣": 1671,
      "水": 1672,
      "氷": 1673,
      "求": 1674,
      "汎": 1675,
      "江": 1676,
      "池": 1677,
      "沙": 1678,
      "河": 1679,
      "治": 1680,
      "洗": 1681,
      "洙": 1682,
      "派": 1683,
      "流": 1684,
      "浙": 1685,
      "浩": 1686,
      "浮": 1687,
      "海": 1688,
      "淸": 1689,
      "湖": 1690,
      "源": 1691,
      "漸": 1692,
      "澤": 1693,
      "瀛": 1694,
      "火": 1695,
      "炳": 1696,
      "無": 1697,
      "照": 1698,
      "熱": 1699,
      "燕": 1700,
      "營": 1701,
      "爲": 1702,
      "父": 1703,
      "物": 1704,
      "獨": 1705,
      "玉": 1706,
      "王": 1707,
      "現": 1708,
      "琴": 1709,
      "甘": 1710,
      "生": 1711,
      "用": 1712,
      "甫": 1713,
      "由": 1714,
      "甲": 1715,
      "界": 1716,
      "略": 1717,
      "畵": 1718,
      "病": 1719,
      "症": 1720,
      "痴": 1721,
      "白": 1722,
      "百": 1723,
      "益": 1724,
      "相": 1725,
      "省": 1726,
      "看": 1727,
      "知": 1728,
      "磬": 1729,
      "社": 1730,
      "祝": 1731,
      "神": 1732,
      "祭": 1733,
      "禁": 1734,
      "禍": 1735,
      "禪": 1736,
      "禮": 1737,
      "私": 1738,
      "秋": 1739,
      "科": 1740,
      "秦": 1741,
      "稙": 1742,
      "種": 1743,
      "穀": 1744,
      "窮": 1745,
      "立": 1746,
      "第": 1747,
      "筆": 1748,
      "箭": 1749,
      "節": 1750,
      "籍": 1751,
      "紀": 1752,
      "約": 1753,
      "紅": 1754,
      "純": 1755,
      "紙": 1756,
      "紳": 1757,
      "給": 1758,
      "統": 1759,
      "網": 1760,
      "緣": 1761,
      "繼": 1762,
      "署": 1763,
      "羊": 1764,
      "美": 1765,
      "群": 1766,
      "義": 1767,
      "習": 1768,
      "老": 1769,
      "者": 1770,
      "而": 1771,
      "耐": 1772,
      "耳": 1773,
      "聖": 1774,
      "聚": 1775,
      "聞": 1776,
      "聯": 1777,
      "職": 1778,
      "肆": 1779,
      "肉": 1780,
      "育": 1781,
      "能": 1782,
      "臥": 1783,
      "臨": 1784,
      "自": 1785,
      "致": 1786,
      "臺": 1787,
      "與": 1788,
      "興": 1789,
      "舊": 1790,
      "舍": 1791,
      "舟": 1792,
      "航": 1793,
      "舵": 1794,
      "花": 1795,
      "若": 1796,
      "莫": 1797,
      "菩": 1798,
      "華": 1799,
      "萬": 1800,
      "葬": 1801,
      "蒙": 1802,
      "蔚": 1803,
      "蕩": 1804,
      "藝": 1805,
      "虛": 1806,
      "號": 1807,
      "蟄": 1808,
      "衆": 1809,
      "行": 1810,
      "衛": 1811,
      "衣": 1812,
      "西": 1813,
      "見": 1814,
      "覓": 1815,
      "親": 1816,
      "觀": 1817,
      "解": 1818,
      "言": 1819,
      "計": 1820,
      "記": 1821,
      "訥": 1822,
      "詐": 1823,
      "試": 1824,
      "詩": 1825,
      "詭": 1826,
      "認": 1827,
      "誠": 1828,
      "請": 1829,
      "謀": 1830,
      "謠": 1831,
      "譁": 1832,
      "護": 1833,
      "讀": 1834,
      "變": 1835,
      "讚": 1836,
      "谷": 1837,
      "豫": 1838,
      "貫": 1839,
      "賞": 1840,
      "質": 1841,
      "赤": 1842,
      "走": 1843,
      "跡": 1844,
      "路": 1845,
      "蹄": 1846,
      "身": 1847,
      "車": 1848,
      "軍": 1849,
      "軒": 1850,
      "軟": 1851,
      "輕": 1852,
      "輿": 1853,
      "轉": 1854,
      "辭": 1855,
      "辰": 1856,
      "迎": 1857,
      "近": 1858,
      "迫": 1859,
      "退": 1860,
      "送": 1861,
      "通": 1862,
      "造": 1863,
      "進": 1864,
      "遊": 1865,
      "過": 1866,
      "道": 1867,
      "遠": 1868,
      "選": 1869,
      "遺": 1870,
      "避": 1871,
      "邪": 1872,
      "部": 1873,
      "都": 1874,
      "鄭": 1875,
      "配": 1876,
      "里": 1877,
      "重": 1878,
      "金": 1879,
      "銅": 1880,
      "銳": 1881,
      "鋒": 1882,
      "錄": 1883,
      "錫": 1884,
      "鎭": 1885,
      "長": 1886,
      "門": 1887,
      "開": 1888,
      "間": 1889,
      "閭": 1890,
      "關": 1891,
      "防": 1892,
      "院": 1893,
      "陣": 1894,
      "陰": 1895,
      "陳": 1896,
      "陵": 1897,
      "陷": 1898,
      "陽": 1899,
      "隊": 1900,
      "隋": 1901,
      "隨": 1902,
      "險": 1903,
      "隱": 1904,
      "雀": 1905,
      "雅": 1906,
      "雖": 1907,
      "雜": 1908,
      "離": 1909,
      "難": 1910,
      "雲": 1911,
      "電": 1912,
      "露": 1913,
      "靄": 1914,
      "靈": 1915,
      "靑": 1916,
      "靖": 1917,
      "靜": 1918,
      "非": 1919,
      "面": 1920,
      "韓": 1921,
      "韜": 1922,
      "音": 1923,
      "順": 1924,
      "須": 1925,
      "類": 1926,
      "顯": 1927,
      "風": 1928,
      "食": 1929,
      "養": 1930,
      "館": 1931,
      "馬": 1932,
      "駐": 1933,
      "駖": 1934,
      "驅": 1935,
      "驚": 1936,
      "驿": 1937,
      "骨": 1938,
      "體": 1939,
      "髮": 1940,
      "鬪": 1941,
      "魂": 1942,
      "魃": 1943,
      "魏": 1944,
      "魔": 1945,
      "鳥": 1946,
      "鳴": 1947,
      "鴨": 1948,
      "鷹": 1949,
      "黃": 1950,
      "鼚": 1951,
      "齋": 1952,
      "龍": 1953,
      "ꂾ": 1954,
      "가": 1955,
      "각": 1956,
      "간": 1957,
      "갇": 1958,
      "갈": 1959,
      "갉": 1960,
      "감": 1961,
      "갑": 1962,
      "값": 1963,
      "갓": 1964,
      "갔": 1965,
      "강": 1966,
      "갖": 1967,
      "같": 1968,
      "갚": 1969,
      "갛": 1970,
      "개": 1971,
      "객": 1972,
      "갤": 1973,
      "갬": 1974,
      "갭": 1975,
      "갯": 1976,
      "갱": 1977,
      "걀": 1978,
      "거": 1979,
      "걱": 1980,
      "건": 1981,
      "걷": 1982,
      "걸": 1983,
      "검": 1984,
      "겁": 1985,
      "것": 1986,
      "겉": 1987,
      "게": 1988,
      "겐": 1989,
      "겔": 1990,
      "겟": 1991,
      "겠": 1992,
      "겨": 1993,
      "격": 1994,
      "겪": 1995,
      "견": 1996,
      "결": 1997,
      "겸": 1998,
      "겹": 1999,
      "겼": 2000,
      "경": 2001,
      "곁": 2002,
      "계": 2003,
      "곗": 2004,
      "고": 2005,
      "곡": 2006,
      "곤": 2007,
      "곧": 2008,
      "골": 2009,
      "곬": 2010,
      "곰": 2011,
      "곱": 2012,
      "곳": 2013,
      "공": 2014,
      "곶": 2015,
      "과": 2016,
      "곽": 2017,
      "관": 2018,
      "괄": 2019,
      "괌": 2020,
      "광": 2021,
      "괘": 2022,
      "괜": 2023,
      "괴": 2024,
      "굉": 2025,
      "교": 2026,
      "굣": 2027,
      "구": 2028,
      "국": 2029,
      "군": 2030,
      "굳": 2031,
      "굴": 2032,
      "굵": 2033,
      "굶": 2034,
      "굽": 2035,
      "굿": 2036,
      "궁": 2037,
      "궂": 2038,
      "궈": 2039,
      "권": 2040,
      "궐": 2041,
      "궜": 2042,
      "궤": 2043,
      "귀": 2044,
      "귄": 2045,
      "귈": 2046,
      "귑": 2047,
      "귓": 2048,
      "규": 2049,
      "균": 2050,
      "귤": 2051,
      "그": 2052,
      "극": 2053,
      "근": 2054,
      "글": 2055,
      "긁": 2056,
      "금": 2057,
      "급": 2058,
      "긋": 2059,
      "긍": 2060,
      "기": 2061,
      "긴": 2062,
      "길": 2063,
      "김": 2064,
      "깃": 2065,
      "깅": 2066,
      "깊": 2067,
      "까": 2068,
      "깎": 2069,
      "깐": 2070,
      "깔": 2071,
      "깜": 2072,
      "깝": 2073,
      "깥": 2074,
      "깨": 2075,
      "깬": 2076,
      "깼": 2077,
      "깽": 2078,
      "꺼": 2079,
      "꺽": 2080,
      "꺾": 2081,
      "껍": 2082,
      "껏": 2083,
      "껐": 2084,
      "께": 2085,
      "껴": 2086,
      "꼈": 2087,
      "꼬": 2088,
      "꼭": 2089,
      "꼰": 2090,
      "꼴": 2091,
      "꼼": 2092,
      "꼽": 2093,
      "꼿": 2094,
      "꽁": 2095,
      "꽂": 2096,
      "꽃": 2097,
      "꽉": 2098,
      "꽝": 2099,
      "꽤": 2100,
      "꽹": 2101,
      "꾀": 2102,
      "꾸": 2103,
      "꾹": 2104,
      "꾼": 2105,
      "꿀": 2106,
      "꿇": 2107,
      "꿈": 2108,
      "꿍": 2109,
      "꿔": 2110,
      "꿨": 2111,
      "꿰": 2112,
      "꿴": 2113,
      "뀌": 2114,
      "뀐": 2115,
      "뀔": 2116,
      "끄": 2117,
      "끈": 2118,
      "끊": 2119,
      "끌": 2120,
      "끓": 2121,
      "끔": 2122,
      "끗": 2123,
      "끝": 2124,
      "끼": 2125,
      "끽": 2126,
      "낀": 2127,
      "낄": 2128,
      "낌": 2129,
      "낍": 2130,
      "나": 2131,
      "낙": 2132,
      "낚": 2133,
      "난": 2134,
      "날": 2135,
      "낡": 2136,
      "남": 2137,
      "납": 2138,
      "낫": 2139,
      "났": 2140,
      "낭": 2141,
      "낮": 2142,
      "낯": 2143,
      "낳": 2144,
      "내": 2145,
      "낵": 2146,
      "낸": 2147,
      "낼": 2148,
      "냄": 2149,
      "냅": 2150,
      "냈": 2151,
      "냉": 2152,
      "냐": 2153,
      "냘": 2154,
      "냠": 2155,
      "냥": 2156,
      "너": 2157,
      "넉": 2158,
      "넋": 2159,
      "넌": 2160,
      "널": 2161,
      "넓": 2162,
      "넘": 2163,
      "넜": 2164,
      "넝": 2165,
      "넣": 2166,
      "네": 2167,
      "넥": 2168,
      "넨": 2169,
      "넬": 2170,
      "넵": 2171,
      "넷": 2172,
      "넸": 2173,
      "녀": 2174,
      "녁": 2175,
      "년": 2176,
      "념": 2177,
      "녔": 2178,
      "녕": 2179,
      "녘": 2180,
      "녜": 2181,
      "노": 2182,
      "녹": 2183,
      "논": 2184,
      "놀": 2185,
      "놈": 2186,
      "농": 2187,
      "높": 2188,
      "놓": 2189,
      "놔": 2190,
      "놨": 2191,
      "뇌": 2192,
      "뇔": 2193,
      "뇨": 2194,
      "뇰": 2195,
      "누": 2196,
      "눅": 2197,
      "눈": 2198,
      "눌": 2199,
      "눔": 2200,
      "눕": 2201,
      "눠": 2202,
      "눴": 2203,
      "뉘": 2204,
      "뉜": 2205,
      "뉴": 2206,
      "늄": 2207,
      "늉": 2208,
      "느": 2209,
      "늑": 2210,
      "는": 2211,
      "늘": 2212,
      "늙": 2213,
      "늠": 2214,
      "능": 2215,
      "늦": 2216,
      "늪": 2217,
      "늬": 2218,
      "니": 2219,
      "닉": 2220,
      "닌": 2221,
      "닐": 2222,
      "님": 2223,
      "닙": 2224,
      "닛": 2225,
      "닝": 2226,
      "다": 2227,
      "닥": 2228,
      "닦": 2229,
      "단": 2230,
      "닫": 2231,
      "달": 2232,
      "닭": 2233,
      "닮": 2234,
      "담": 2235,
      "답": 2236,
      "닷": 2237,
      "당": 2238,
      "닻": 2239,
      "닿": 2240,
      "대": 2241,
      "댄": 2242,
      "댈": 2243,
      "댐": 2244,
      "댓": 2245,
      "댔": 2246,
      "댕": 2247,
      "더": 2248,
      "덕": 2249,
      "던": 2250,
      "덜": 2251,
      "덟": 2252,
      "덤": 2253,
      "덥": 2254,
      "덧": 2255,
      "덩": 2256,
      "덫": 2257,
      "덮": 2258,
      "데": 2259,
      "덱": 2260,
      "덴": 2261,
      "델": 2262,
      "뎀": 2263,
      "뎅": 2264,
      "뎌": 2265,
      "뎠": 2266,
      "도": 2267,
      "독": 2268,
      "돆": 2269,
      "돈": 2270,
      "돋": 2271,
      "돌": 2272,
      "돔": 2273,
      "돕": 2274,
      "돗": 2275,
      "동": 2276,
      "돛": 2277,
      "돼": 2278,
      "됐": 2279,
      "되": 2280,
      "된": 2281,
      "될": 2282,
      "됨": 2283,
      "됩": 2284,
      "두": 2285,
      "둑": 2286,
      "둔": 2287,
      "둘": 2288,
      "둠": 2289,
      "둡": 2290,
      "둣": 2291,
      "둥": 2292,
      "둬": 2293,
      "뒀": 2294,
      "뒤": 2295,
      "뒴": 2296,
      "뒷": 2297,
      "듀": 2298,
      "듈": 2299,
      "드": 2300,
      "득": 2301,
      "든": 2302,
      "듣": 2303,
      "들": 2304,
      "듦": 2305,
      "듬": 2306,
      "듭": 2307,
      "듯": 2308,
      "등": 2309,
      "디": 2310,
      "딕": 2311,
      "딘": 2312,
      "딛": 2313,
      "딜": 2314,
      "딤": 2315,
      "딥": 2316,
      "딧": 2317,
      "딩": 2318,
      "딪": 2319,
      "따": 2320,
      "딱": 2321,
      "딴": 2322,
      "딸": 2323,
      "땀": 2324,
      "땄": 2325,
      "땅": 2326,
      "땋": 2327,
      "때": 2328,
      "땎": 2329,
      "땐": 2330,
      "땔": 2331,
      "땠": 2332,
      "땡": 2333,
      "떂": 2334,
      "떠": 2335,
      "떡": 2336,
      "떤": 2337,
      "떨": 2338,
      "떳": 2339,
      "떴": 2340,
      "떻": 2341,
      "떼": 2342,
      "뗀": 2343,
      "뗄": 2344,
      "뗏": 2345,
      "뗐": 2346,
      "또": 2347,
      "똑": 2348,
      "똘": 2349,
      "똠": 2350,
      "똥": 2351,
      "뙤": 2352,
      "뚜": 2353,
      "뚝": 2354,
      "뚤": 2355,
      "뚫": 2356,
      "뚱": 2357,
      "뛰": 2358,
      "뛴": 2359,
      "뛸": 2360,
      "뜀": 2361,
      "뜨": 2362,
      "뜩": 2363,
      "뜬": 2364,
      "뜯": 2365,
      "뜰": 2366,
      "뜸": 2367,
      "뜻": 2368,
      "띄": 2369,
      "띈": 2370,
      "띕": 2371,
      "띠": 2372,
      "띤": 2373,
      "띳": 2374,
      "라": 2375,
      "락": 2376,
      "란": 2377,
      "랄": 2378,
      "람": 2379,
      "랍": 2380,
      "랏": 2381,
      "랐": 2382,
      "랑": 2383,
      "랗": 2384,
      "래": 2385,
      "랙": 2386,
      "랜": 2387,
      "랠": 2388,
      "램": 2389,
      "랩": 2390,
      "랫": 2391,
      "랬": 2392,
      "랭": 2393,
      "랴": 2394,
      "략": 2395,
      "량": 2396,
      "러": 2397,
      "럭": 2398,
      "런": 2399,
      "럴": 2400,
      "럼": 2401,
      "럽": 2402,
      "럿": 2403,
      "렀": 2404,
      "렁": 2405,
      "렇": 2406,
      "레": 2407,
      "렉": 2408,
      "렌": 2409,
      "렐": 2410,
      "렘": 2411,
      "렛": 2412,
      "려": 2413,
      "력": 2414,
      "련": 2415,
      "렬": 2416,
      "렴": 2417,
      "렵": 2418,
      "렷": 2419,
      "렸": 2420,
      "령": 2421,
      "례": 2422,
      "롄": 2423,
      "로": 2424,
      "록": 2425,
      "론": 2426,
      "롤": 2427,
      "롬": 2428,
      "롭": 2429,
      "롯": 2430,
      "롱": 2431,
      "뢰": 2432,
      "룀": 2433,
      "료": 2434,
      "룡": 2435,
      "루": 2436,
      "룩": 2437,
      "룬": 2438,
      "룰": 2439,
      "룸": 2440,
      "룹": 2441,
      "룻": 2442,
      "룽": 2443,
      "뤄": 2444,
      "뤘": 2445,
      "뤼": 2446,
      "류": 2447,
      "륙": 2448,
      "륜": 2449,
      "률": 2450,
      "륨": 2451,
      "륭": 2452,
      "르": 2453,
      "륵": 2454,
      "른": 2455,
      "를": 2456,
      "름": 2457,
      "릅": 2458,
      "릇": 2459,
      "릉": 2460,
      "릎": 2461,
      "리": 2462,
      "릭": 2463,
      "린": 2464,
      "릴": 2465,
      "림": 2466,
      "립": 2467,
      "릿": 2468,
      "링": 2469,
      "마": 2470,
      "막": 2471,
      "만": 2472,
      "많": 2473,
      "맏": 2474,
      "말": 2475,
      "맑": 2476,
      "맘": 2477,
      "맙": 2478,
      "맛": 2479,
      "망": 2480,
      "맞": 2481,
      "맡": 2482,
      "맣": 2483,
      "매": 2484,
      "맥": 2485,
      "맨": 2486,
      "맴": 2487,
      "맵": 2488,
      "맷": 2489,
      "맸": 2490,
      "맹": 2491,
      "맺": 2492,
      "머": 2493,
      "먹": 2494,
      "먼": 2495,
      "멀": 2496,
      "멈": 2497,
      "멋": 2498,
      "멍": 2499,
      "멓": 2500,
      "메": 2501,
      "멕": 2502,
      "멘": 2503,
      "멜": 2504,
      "멤": 2505,
      "멧": 2506,
      "멩": 2507,
      "며": 2508,
      "멱": 2509,
      "면": 2510,
      "멸": 2511,
      "명": 2512,
      "몇": 2513,
      "모": 2514,
      "목": 2515,
      "몫": 2516,
      "몬": 2517,
      "몰": 2518,
      "몸": 2519,
      "몹": 2520,
      "못": 2521,
      "몽": 2522,
      "묏": 2523,
      "묘": 2524,
      "무": 2525,
      "묵": 2526,
      "묶": 2527,
      "문": 2528,
      "묻": 2529,
      "물": 2530,
      "묽": 2531,
      "뭄": 2532,
      "뭇": 2533,
      "뭉": 2534,
      "뭍": 2535,
      "뭐": 2536,
      "뭔": 2537,
      "뭘": 2538,
      "뮈": 2539,
      "뮌": 2540,
      "뮐": 2541,
      "뮤": 2542,
      "뮬": 2543,
      "뮴": 2544,
      "므": 2545,
      "믈": 2546,
      "미": 2547,
      "믹": 2548,
      "민": 2549,
      "믿": 2550,
      "밀": 2551,
      "밈": 2552,
      "밉": 2553,
      "밋": 2554,
      "밌": 2555,
      "밍": 2556,
      "및": 2557,
      "밑": 2558,
      "바": 2559,
      "박": 2560,
      "밖": 2561,
      "반": 2562,
      "받": 2563,
      "발": 2564,
      "밝": 2565,
      "밟": 2566,
      "밤": 2567,
      "밥": 2568,
      "밧": 2569,
      "방": 2570,
      "밭": 2571,
      "배": 2572,
      "백": 2573,
      "밴": 2574,
      "밸": 2575,
      "뱀": 2576,
      "뱁": 2577,
      "뱃": 2578,
      "뱅": 2579,
      "뱉": 2580,
      "뱌": 2581,
      "버": 2582,
      "벅": 2583,
      "번": 2584,
      "벌": 2585,
      "범": 2586,
      "법": 2587,
      "벗": 2588,
      "벙": 2589,
      "벚": 2590,
      "베": 2591,
      "벡": 2592,
      "벤": 2593,
      "벨": 2594,
      "벳": 2595,
      "벵": 2596,
      "벼": 2597,
      "벽": 2598,
      "변": 2599,
      "별": 2600,
      "볍": 2601,
      "볐": 2602,
      "병": 2603,
      "볕": 2604,
      "보": 2605,
      "복": 2606,
      "볶": 2607,
      "본": 2608,
      "볼": 2609,
      "봄": 2610,
      "봅": 2611,
      "봇": 2612,
      "봉": 2613,
      "봐": 2614,
      "봤": 2615,
      "봬": 2616,
      "뵈": 2617,
      "뵙": 2618,
      "부": 2619,
      "북": 2620,
      "분": 2621,
      "불": 2622,
      "붉": 2623,
      "붐": 2624,
      "붓": 2625,
      "붕": 2626,
      "붙": 2627,
      "뷔": 2628,
      "뷰": 2629,
      "뷸": 2630,
      "브": 2631,
      "븐": 2632,
      "블": 2633,
      "비": 2634,
      "빅": 2635,
      "빈": 2636,
      "빌": 2637,
      "빔": 2638,
      "빗": 2639,
      "빙": 2640,
      "빚": 2641,
      "빛": 2642,
      "빠": 2643,
      "빤": 2644,
      "빨": 2645,
      "빰": 2646,
      "빴": 2647,
      "빵": 2648,
      "빼": 2649,
      "뺀": 2650,
      "뺄": 2651,
      "뺏": 2652,
      "뺐": 2653,
      "뺑": 2654,
      "뻐": 2655,
      "뻑": 2656,
      "뻔": 2657,
      "뻗": 2658,
      "뻘": 2659,
      "뻤": 2660,
      "뼈": 2661,
      "뼛": 2662,
      "뽀": 2663,
      "뽐": 2664,
      "뽑": 2665,
      "뽕": 2666,
      "뿌": 2667,
      "뿐": 2668,
      "뿔": 2669,
      "뿜": 2670,
      "쁘": 2671,
      "쁜": 2672,
      "쁠": 2673,
      "쁨": 2674,
      "쁩": 2675,
      "삐": 2676,
      "사": 2677,
      "삭": 2678,
      "삯": 2679,
      "산": 2680,
      "살": 2681,
      "삵": 2682,
      "삶": 2683,
      "삼": 2684,
      "삽": 2685,
      "삿": 2686,
      "상": 2687,
      "샅": 2688,
      "새": 2689,
      "색": 2690,
      "샌": 2691,
      "샐": 2692,
      "샘": 2693,
      "샛": 2694,
      "생": 2695,
      "샤": 2696,
      "샨": 2697,
      "샬": 2698,
      "샴": 2699,
      "샵": 2700,
      "샷": 2701,
      "샹": 2702,
      "섀": 2703,
      "서": 2704,
      "석": 2705,
      "섞": 2706,
      "선": 2707,
      "섣": 2708,
      "설": 2709,
      "섦": 2710,
      "섬": 2711,
      "섭": 2712,
      "섯": 2713,
      "섰": 2714,
      "성": 2715,
      "섶": 2716,
      "세": 2717,
      "섹": 2718,
      "센": 2719,
      "셀": 2720,
      "셈": 2721,
      "셉": 2722,
      "셋": 2723,
      "셍": 2724,
      "셔": 2725,
      "션": 2726,
      "셜": 2727,
      "셧": 2728,
      "셨": 2729,
      "셩": 2730,
      "셰": 2731,
      "셴": 2732,
      "셸": 2733,
      "소": 2734,
      "속": 2735,
      "손": 2736,
      "솔": 2737,
      "솜": 2738,
      "솝": 2739,
      "솟": 2740,
      "송": 2741,
      "솥": 2742,
      "쇄": 2743,
      "쇠": 2744,
      "쇼": 2745,
      "숀": 2746,
      "숄": 2747,
      "숍": 2748,
      "숏": 2749,
      "수": 2750,
      "숙": 2751,
      "순": 2752,
      "숟": 2753,
      "술": 2754,
      "숨": 2755,
      "숫": 2756,
      "숭": 2757,
      "숯": 2758,
      "숱": 2759,
      "숲": 2760,
      "숴": 2761,
      "쉐": 2762,
      "쉬": 2763,
      "쉰": 2764,
      "쉴": 2765,
      "쉼": 2766,
      "쉽": 2767,
      "슈": 2768,
      "슐": 2769,
      "슛": 2770,
      "슝": 2771,
      "스": 2772,
      "슨": 2773,
      "슬": 2774,
      "슴": 2775,
      "습": 2776,
      "슷": 2777,
      "승": 2778,
      "시": 2779,
      "식": 2780,
      "신": 2781,
      "싣": 2782,
      "실": 2783,
      "싫": 2784,
      "심": 2785,
      "십": 2786,
      "싯": 2787,
      "싱": 2788,
      "싶": 2789,
      "싸": 2790,
      "싹": 2791,
      "싼": 2792,
      "쌀": 2793,
      "쌈": 2794,
      "쌍": 2795,
      "쌓": 2796,
      "쌲": 2797,
      "쌿": 2798,
      "써": 2799,
      "썩": 2800,
      "썬": 2801,
      "썰": 2802,
      "썸": 2803,
      "썹": 2804,
      "썼": 2805,
      "쎄": 2806,
      "쎈": 2807,
      "쏘": 2808,
      "쏙": 2809,
      "쏜": 2810,
      "쏟": 2811,
      "쏠": 2812,
      "쏭": 2813,
      "쏴": 2814,
      "쐈": 2815,
      "쐐": 2816,
      "쐬": 2817,
      "쑤": 2818,
      "쑥": 2819,
      "쑨": 2820,
      "쑹": 2821,
      "쓰": 2822,
      "쓴": 2823,
      "쓸": 2824,
      "씀": 2825,
      "씁": 2826,
      "씌": 2827,
      "씨": 2828,
      "씩": 2829,
      "씬": 2830,
      "씰": 2831,
      "씹": 2832,
      "씻": 2833,
      "씽": 2834,
      "아": 2835,
      "악": 2836,
      "안": 2837,
      "앉": 2838,
      "않": 2839,
      "알": 2840,
      "앎": 2841,
      "앓": 2842,
      "암": 2843,
      "압": 2844,
      "앗": 2845,
      "았": 2846,
      "앙": 2847,
      "앞": 2848,
      "애": 2849,
      "액": 2850,
      "앤": 2851,
      "앨": 2852,
      "앰": 2853,
      "앱": 2854,
      "앵": 2855,
      "야": 2856,
      "약": 2857,
      "얀": 2858,
      "얄": 2859,
      "얇": 2860,
      "얌": 2861,
      "양": 2862,
      "얕": 2863,
      "얗": 2864,
      "얘": 2865,
      "어": 2866,
      "억": 2867,
      "언": 2868,
      "얹": 2869,
      "얻": 2870,
      "얼": 2871,
      "얽": 2872,
      "엄": 2873,
      "업": 2874,
      "없": 2875,
      "엇": 2876,
      "었": 2877,
      "엉": 2878,
      "엌": 2879,
      "엎": 2880,
      "에": 2881,
      "엑": 2882,
      "엔": 2883,
      "엘": 2884,
      "엠": 2885,
      "엣": 2886,
      "엥": 2887,
      "여": 2888,
      "역": 2889,
      "엮": 2890,
      "연": 2891,
      "열": 2892,
      "엷": 2893,
      "염": 2894,
      "엽": 2895,
      "엾": 2896,
      "엿": 2897,
      "였": 2898,
      "영": 2899,
      "옅": 2900,
      "옆": 2901,
      "예": 2902,
      "옌": 2903,
      "옐": 2904,
      "옙": 2905,
      "옛": 2906,
      "오": 2907,
      "옥": 2908,
      "온": 2909,
      "올": 2910,
      "옭": 2911,
      "옮": 2912,
      "옳": 2913,
      "옴": 2914,
      "옵": 2915,
      "옷": 2916,
      "옹": 2917,
      "와": 2918,
      "왁": 2919,
      "완": 2920,
      "왈": 2921,
      "왓": 2922,
      "왔": 2923,
      "왕": 2924,
      "왜": 2925,
      "왠": 2926,
      "왱": 2927,
      "외": 2928,
      "왼": 2929,
      "요": 2930,
      "욕": 2931,
      "욘": 2932,
      "욤": 2933,
      "용": 2934,
      "우": 2935,
      "욱": 2936,
      "운": 2937,
      "울": 2938,
      "움": 2939,
      "웁": 2940,
      "웃": 2941,
      "웅": 2942,
      "워": 2943,
      "웍": 2944,
      "원": 2945,
      "월": 2946,
      "웠": 2947,
      "웡": 2948,
      "웨": 2949,
      "웬": 2950,
      "웰": 2951,
      "웸": 2952,
      "웹": 2953,
      "위": 2954,
      "윅": 2955,
      "윈": 2956,
      "윌": 2957,
      "윔": 2958,
      "윗": 2959,
      "윙": 2960,
      "유": 2961,
      "육": 2962,
      "윤": 2963,
      "율": 2964,
      "융": 2965,
      "으": 2966,
      "윽": 2967,
      "은": 2968,
      "을": 2969,
      "읊": 2970,
      "음": 2971,
      "읍": 2972,
      "응": 2973,
      "의": 2974,
      "이": 2975,
      "익": 2976,
      "인": 2977,
      "일": 2978,
      "읽": 2979,
      "잃": 2980,
      "임": 2981,
      "입": 2982,
      "잇": 2983,
      "있": 2984,
      "잉": 2985,
      "잊": 2986,
      "잎": 2987,
      "자": 2988,
      "작": 2989,
      "잔": 2990,
      "잖": 2991,
      "잘": 2992,
      "잠": 2993,
      "잡": 2994,
      "잣": 2995,
      "잤": 2996,
      "장": 2997,
      "잦": 2998,
      "재": 2999,
      "잭": 3000,
      "잰": 3001,
      "잼": 3002,
      "잿": 3003,
      "쟁": 3004,
      "저": 3005,
      "적": 3006,
      "전": 3007,
      "절": 3008,
      "젊": 3009,
      "점": 3010,
      "접": 3011,
      "젓": 3012,
      "정": 3013,
      "젖": 3014,
      "제": 3015,
      "젝": 3016,
      "젠": 3017,
      "젤": 3018,
      "젯": 3019,
      "져": 3020,
      "졌": 3021,
      "조": 3022,
      "족": 3023,
      "존": 3024,
      "졸": 3025,
      "좀": 3026,
      "좁": 3027,
      "종": 3028,
      "좇": 3029,
      "좋": 3030,
      "좌": 3031,
      "죄": 3032,
      "죗": 3033,
      "죠": 3034,
      "주": 3035,
      "죽": 3036,
      "준": 3037,
      "줄": 3038,
      "줌": 3039,
      "줍": 3040,
      "줏": 3041,
      "중": 3042,
      "줘": 3043,
      "줬": 3044,
      "쥐": 3045,
      "쥔": 3046,
      "쥘": 3047,
      "쥬": 3048,
      "즈": 3049,
      "즉": 3050,
      "즌": 3051,
      "즐": 3052,
      "즘": 3053,
      "증": 3054,
      "지": 3055,
      "직": 3056,
      "진": 3057,
      "질": 3058,
      "짊": 3059,
      "짐": 3060,
      "집": 3061,
      "짓": 3062,
      "징": 3063,
      "짙": 3064,
      "짚": 3065,
      "짜": 3066,
      "짝": 3067,
      "짠": 3068,
      "짧": 3069,
      "짬": 3070,
      "짰": 3071,
      "짱": 3072,
      "째": 3073,
      "쨌": 3074,
      "쨍": 3075,
      "쩌": 3076,
      "쩍": 3077,
      "쩐": 3078,
      "쩔": 3079,
      "쪼": 3080,
      "쪽": 3081,
      "쫀": 3082,
      "쫑": 3083,
      "쫓": 3084,
      "쫙": 3085,
      "쭉": 3086,
      "쭐": 3087,
      "쯤": 3088,
      "찌": 3089,
      "찍": 3090,
      "찐": 3091,
      "찔": 3092,
      "찜": 3093,
      "찝": 3094,
      "찢": 3095,
      "차": 3096,
      "착": 3097,
      "찬": 3098,
      "찮": 3099,
      "찰": 3100,
      "참": 3101,
      "찹": 3102,
      "찼": 3103,
      "창": 3104,
      "찾": 3105,
      "채": 3106,
      "책": 3107,
      "챈": 3108,
      "챌": 3109,
      "챔": 3110,
      "챕": 3111,
      "챗": 3112,
      "챘": 3113,
      "챙": 3114,
      "처": 3115,
      "척": 3116,
      "천": 3117,
      "철": 3118,
      "첨": 3119,
      "첩": 3120,
      "첫": 3121,
      "청": 3122,
      "체": 3123,
      "첸": 3124,
      "첼": 3125,
      "쳇": 3126,
      "쳉": 3127,
      "쳐": 3128,
      "쳤": 3129,
      "초": 3130,
      "촉": 3131,
      "촌": 3132,
      "촘": 3133,
      "촛": 3134,
      "총": 3135,
      "촬": 3136,
      "최": 3137,
      "추": 3138,
      "축": 3139,
      "춘": 3140,
      "출": 3141,
      "춤": 3142,
      "춧": 3143,
      "충": 3144,
      "춰": 3145,
      "췄": 3146,
      "췌": 3147,
      "취": 3148,
      "츄": 3149,
      "츈": 3150,
      "츌": 3151,
      "츠": 3152,
      "측": 3153,
      "츤": 3154,
      "츰": 3155,
      "층": 3156,
      "치": 3157,
      "칙": 3158,
      "친": 3159,
      "칠": 3160,
      "침": 3161,
      "칩": 3162,
      "칫": 3163,
      "칭": 3164,
      "카": 3165,
      "칵": 3166,
      "칸": 3167,
      "칼": 3168,
      "캄": 3169,
      "캅": 3170,
      "캇": 3171,
      "캉": 3172,
      "캐": 3173,
      "캔": 3174,
      "캘": 3175,
      "캠": 3176,
      "캡": 3177,
      "캣": 3178,
      "커": 3179,
      "컥": 3180,
      "컨": 3181,
      "컫": 3182,
      "컬": 3183,
      "컴": 3184,
      "컵": 3185,
      "컷": 3186,
      "컸": 3187,
      "컹": 3188,
      "케": 3189,
      "켄": 3190,
      "켈": 3191,
      "켐": 3192,
      "켓": 3193,
      "켜": 3194,
      "켰": 3195,
      "코": 3196,
      "콕": 3197,
      "콘": 3198,
      "콜": 3199,
      "콤": 3200,
      "콥": 3201,
      "콧": 3202,
      "콩": 3203,
      "콰": 3204,
      "쾅": 3205,
      "쾌": 3206,
      "쾰": 3207,
      "쿄": 3208,
      "쿠": 3209,
      "쿡": 3210,
      "쿤": 3211,
      "쿨": 3212,
      "쿵": 3213,
      "쿼": 3214,
      "퀀": 3215,
      "퀄": 3216,
      "퀘": 3217,
      "퀴": 3218,
      "퀸": 3219,
      "큐": 3220,
      "큘": 3221,
      "크": 3222,
      "큰": 3223,
      "클": 3224,
      "큼": 3225,
      "큽": 3226,
      "키": 3227,
      "킥": 3228,
      "킨": 3229,
      "킬": 3230,
      "킴": 3231,
      "킵": 3232,
      "킷": 3233,
      "킹": 3234,
      "타": 3235,
      "탁": 3236,
      "탄": 3237,
      "탈": 3238,
      "탐": 3239,
      "탑": 3240,
      "탓": 3241,
      "탔": 3242,
      "탕": 3243,
      "태": 3244,
      "택": 3245,
      "탠": 3246,
      "탬": 3247,
      "탭": 3248,
      "탰": 3249,
      "탱": 3250,
      "터": 3251,
      "턱": 3252,
      "턴": 3253,
      "털": 3254,
      "텀": 3255,
      "텁": 3256,
      "텃": 3257,
      "텅": 3258,
      "테": 3259,
      "텍": 3260,
      "텐": 3261,
      "텔": 3262,
      "템": 3263,
      "텟": 3264,
      "텨": 3265,
      "텼": 3266,
      "톈": 3267,
      "토": 3268,
      "톡": 3269,
      "톤": 3270,
      "톨": 3271,
      "톰": 3272,
      "톱": 3273,
      "통": 3274,
      "퇴": 3275,
      "투": 3276,
      "툭": 3277,
      "툰": 3278,
      "툴": 3279,
      "툼": 3280,
      "퉁": 3281,
      "퉈": 3282,
      "튀": 3283,
      "튜": 3284,
      "튠": 3285,
      "튬": 3286,
      "트": 3287,
      "특": 3288,
      "튼": 3289,
      "튿": 3290,
      "틀": 3291,
      "틈": 3292,
      "틋": 3293,
      "틔": 3294,
      "티": 3295,
      "틱": 3296,
      "틴": 3297,
      "틸": 3298,
      "팀": 3299,
      "팁": 3300,
      "팅": 3301,
      "파": 3302,
      "팍": 3303,
      "팎": 3304,
      "판": 3305,
      "팔": 3306,
      "팜": 3307,
      "팝": 3308,
      "팟": 3309,
      "팠": 3310,
      "팡": 3311,
      "팥": 3312,
      "패": 3313,
      "팩": 3314,
      "팬": 3315,
      "팰": 3316,
      "팸": 3317,
      "팹": 3318,
      "팻": 3319,
      "팽": 3320,
      "퍼": 3321,
      "펀": 3322,
      "펄": 3323,
      "펌": 3324,
      "펑": 3325,
      "페": 3326,
      "펙": 3327,
      "펜": 3328,
      "펠": 3329,
      "펫": 3330,
      "펭": 3331,
      "펴": 3332,
      "편": 3333,
      "펼": 3334,
      "폄": 3335,
      "폈": 3336,
      "평": 3337,
      "폐": 3338,
      "포": 3339,
      "폭": 3340,
      "폰": 3341,
      "폴": 3342,
      "폼": 3343,
      "폿": 3344,
      "퐁": 3345,
      "표": 3346,
      "푯": 3347,
      "푸": 3348,
      "푹": 3349,
      "푼": 3350,
      "풀": 3351,
      "품": 3352,
      "풋": 3353,
      "풍": 3354,
      "퓨": 3355,
      "프": 3356,
      "픈": 3357,
      "플": 3358,
      "픔": 3359,
      "피": 3360,
      "픽": 3361,
      "핀": 3362,
      "필": 3363,
      "핌": 3364,
      "핍": 3365,
      "핏": 3366,
      "핑": 3367,
      "하": 3368,
      "학": 3369,
      "한": 3370,
      "할": 3371,
      "함": 3372,
      "합": 3373,
      "핫": 3374,
      "항": 3375,
      "해": 3376,
      "핵": 3377,
      "핸": 3378,
      "핼": 3379,
      "햄": 3380,
      "햅": 3381,
      "햇": 3382,
      "했": 3383,
      "행": 3384,
      "향": 3385,
      "허": 3386,
      "헌": 3387,
      "헐": 3388,
      "험": 3389,
      "헛": 3390,
      "헝": 3391,
      "헤": 3392,
      "헥": 3393,
      "헨": 3394,
      "헬": 3395,
      "헹": 3396,
      "혀": 3397,
      "혁": 3398,
      "현": 3399,
      "혈": 3400,
      "혐": 3401,
      "협": 3402,
      "혔": 3403,
      "형": 3404,
      "혜": 3405,
      "호": 3406,
      "혹": 3407,
      "혼": 3408,
      "홀": 3409,
      "홈": 3410,
      "홉": 3411,
      "홋": 3412,
      "홍": 3413,
      "화": 3414,
      "확": 3415,
      "환": 3416,
      "활": 3417,
      "황": 3418,
      "횃": 3419,
      "회": 3420,
      "획": 3421,
      "횟": 3422,
      "횡": 3423,
      "효": 3424,
      "후": 3425,
      "훅": 3426,
      "훈": 3427,
      "훌": 3428,
      "훔": 3429,
      "훗": 3430,
      "훙": 3431,
      "훤": 3432,
      "훨": 3433,
      "훼": 3434,
      "휘": 3435,
      "휠": 3436,
      "휩": 3437,
      "휴": 3438,
      "휼": 3439,
      "흉": 3440,
      "흐": 3441,
      "흑": 3442,
      "흔": 3443,
      "흘": 3444,
      "흙": 3445,
      "흠": 3446,
      "흡": 3447,
      "흥": 3448,
      "흩": 3449,
      "희": 3450,
      "흰": 3451,
      "흼": 3452,
      "히": 3453,
      "힌": 3454,
      "힐": 3455,
      "힘": 3456,
      "힙": 3457,
      "힝": 3458,
      "": 3459,
      "！": 3460,
      "％": 3461,
      "２": 3462,
      "３": 3463,
      "６": 3464,
      "７": 3465,
      "？": 3466,
      "Ｋ": 3467,
      "Ｎ": 3468,
      "ｍ": 3469,
      "##두": 3470,
      "##라": 3471,
      "##다": 3472,
      "##양": 3473,
      "##한": 3474,
      "##군": 3475,
      "##종": 3476,
      "##이": 3477,
      "##존": 3478,
      "##재": 3479,
      "##하": 3480,
      "##고": 3481,
      "##있": 3482,
      "##량": 3483,
      "##을": 3484,
      "##대": 3485,
      "##상": 3486,
      "##으": 3487,
      "##로": 3488,
      "##안": 3489,
      "##전": 3490,
      "##용": 3491,
      "##품": 3492,
      "##장": 3493,
      "##착": 3494,
      "##며": 3495,
      "##사": 3496,
      "##달": 3497,
      "##결": 3498,
      "##연": 3499,
      "##단": 3500,
      "##체": 3501,
      "##와": 3502,
      "##호": 3503,
      "##우": 3504,
      "##를": 3505,
      "##지": 3506,
      "##유": 3507,
      "##렇": 3508,
      "##게": 3509,
      "##됐": 3510,
      "##에": 3511,
      "##르": 3512,
      "##기": 3513,
      "##까": 3514,
      "##끊": 3515,
      "##임": 3516,
      "##없": 3517,
      "##외": 3518,
      "##세": 3519,
      "##침": 3520,
      "##략": 3521,
      "##받": 3522,
      "##았": 3523,
      "##습": 3524,
      "##니": 3525,
      "##디": 3526,
      "##아": 3527,
      "##나": 3528,
      "##스": 3529,
      "##황": 3530,
      "##극": 3531,
      "##도": 3532,
      "##위": 3533,
      "##험": 3534,
      "##걱": 3535,
      "##정": 3536,
      "##럽": 3537,
      "##율": 3538,
      "##해": 3539,
      "##진": 3540,
      "##미": 3541,
      "##드": 3542,
      "##먼": 3543,
      "##슨": 3544,
      "##의": 3545,
      "##려": 3546,
      "##움": 3547,
      "##는": 3548,
      "##조": 3549,
      "##직": 3550,
      "##제": 3551,
      "##적": 3552,
      "##십": 3553,
      "##자": 3554,
      "##원": 3555,
      "##회": 3556,
      "##리": 3557,
      "##예": 3558,
      "##능": 3559,
      "##퍼": 3560,
      "##레": 3561,
      "##션": 3562,
      "##,": 3563,
      "##어": 3564,
      "##떠": 3565,
      "##올": 3566,
      "##공": 3567,
      "##병": 3568,
      "##학": 3569,
      "##교": 3570,
      "##2": 3571,
      "##9": 3572,
      "##일": 3573,
      "##부": 3574,
      "##컨": 3575,
      "##벤": 3576,
      "##센": 3577,
      "##축": 3578,
      "##국": 3579,
      "##영": 3580,
      "##토": 3581,
      "##내": 3582,
      "##권": 3583,
      "##익": 3584,
      "##실": 3585,
      "##후": 3586,
      "##1": 3587,
      "##년": 3588,
      "##홍": 3589,
      "##동": 3590,
      "##마": 3591,
      "##가": 3592,
      "##베": 3593,
      "##은": 3594,
      "##앞": 3595,
      "##더": 3596,
      "##많": 3597,
      "##방": 3598,
      "##참": 3599,
      "##할": 3600,
      "##수": 3601,
      "##성": 3602,
      "##중": 3603,
      "##문": 3604,
      "##오": 3605,
      "##른": 3606,
      "##현": 3607,
      "##변": 3608,
      "##화": 3609,
      "##시": 3610,
      "##키": 3611,
      "##핵": 3612,
      "##심": 3613,
      "##요": 3614,
      "##소": 3615,
      "##7": 3616,
      "##글": 3617,
      "##령": 3618,
      "##행": 3619,
      "##들": 3620,
      "##음": 3621,
      "##식": 3622,
      "##먹": 3623,
      "##힘": 3624,
      "##확": 3625,
      "##보": 3626,
      "##채": 3627,
      "##널": 3628,
      "##K": 3629,
      "##F": 3630,
      "##N": 3631,
      "##히": 3632,
      "##경": 3633,
      "##파": 3634,
      "##견": 3635,
      "##태": 3636,
      "##여": 3637,
      "##광": 3638,
      "##복": 3639,
      "##8": 3640,
      "##0": 3641,
      "##주": 3642,
      "##름": 3643,
      "##철": 3644,
      "##옥": 3645,
      "##처": 3646,
      "##악": 3647,
      "##버": 3648,
      "##섬": 3649,
      "##분": 3650,
      "##저": 3651,
      "##솔": 3652,
      "##백": 3653,
      "##록": 3654,
      "##통": 3655,
      "##금": 3656,
      "##서": 3657,
      "##등": 3658,
      "##했": 3659,
      "##매": 3660,
      "##겠": 3661,
      "##언": 3662,
      "##트": 3663,
      "##럼": 3664,
      "##프": 3665,
      "##머": 3666,
      "##계": 3667,
      "##획": 3668,
      "##입": 3669,
      "##만": 3670,
      "##거": 3671,
      "##질": 3672,
      "##높": 3673,
      "##것": 3674,
      "##짓": 3675,
      "##북": 3676,
      "##선": 3677,
      "##모": 3678,
      "##형": 3679,
      "##속": 3680,
      "##햄": 3681,
      "##턴": 3682,
      "##런": 3683,
      "##던": 3684,
      "##크": 3685,
      "##븐": 3686,
      "##코": 3687,
      "##훈": 3688,
      "##련": 3689,
      "##작": 3690,
      "##립": 3691,
      "##역": 3692,
      "##감": 3693,
      "##폭": 3694,
      "##되": 3695,
      "##흥": 3696,
      "##얼": 3697,
      "##린": 3698,
      "##무": 3699,
      "##력": 3700,
      "##치": 3701,
      "##배": 3702,
      "##䌴": 3703,
      "##6": 3704,
      "##월": 3705,
      "##인": 3706,
      "##득": 3707,
      "##향": 3708,
      "##과": 3709,
      "##각": 3710,
      "##총": 3711,
      "##콜": 3712,
      "##합": 3713,
      "##설": 3714,
      "##워": 3715,
      "##싱": 3716,
      "##D": 3717,
      "##C": 3718,
      "##박": 3719,
      "##된": 3720,
      "##메": 3721,
      "##테": 3722,
      "##같": 3723,
      "##산": 3724,
      "##업": 3725,
      "##발": 3726,
      "##었": 3727,
      "##망": 3728,
      "##겁": 3729,
      "##면": 3730,
      "##본": 3731,
      "##색": 3732,
      "##4": 3733,
      "##명": 3734,
      "##개": 3735,
      "##편": 3736,
      "##출": 3737,
      "##격": 3738,
      "##구": 3739,
      "##별": 3740,
      "##냉": 3741,
      "##잘": 3742,
      "##낼": 3743,
      "##혀": 3744,
      "##증": 3745,
      "##\u0004": 3746,
      "##억": 3747,
      "##생": 3748,
      "##피": 3749,
      "##또": 3750,
      "##래": 3751,
      "##터": 3752,
      "##클": 3753,
      "##카": 3754,
      "##준": 3755,
      "##란": 3756,
      "##남": 3757,
      "##송": 3758,
      "##환": 3759,
      "##렸": 3760,
      "##듯": 3761,
      "##밝": 3762,
      "##혔": 3763,
      "##불": 3764,
      "##붙": 3765,
      "##든": 3766,
      "##타": 3767,
      "##바": 3768,
      "##답": 3769,
      "##논": 3770,
      "##쟁": 3771,
      "##론": 3772,
      "##신": 3773,
      "##뢰": 3774,
      "##친": 3775,
      "##범": 3776,
      "##갖": 3777,
      "##춘": 3778,
      "##급": 3779,
      "##담": 3780,
      "##맞": 3781,
      "##춰": 3782,
      "##평": 3783,
      "##취": 3784,
      "##덕": 3785,
      "##갈": 3786,
      "##줄": 3787,
      "##람": 3788,
      "##혜": 3789,
      "##울": 3790,
      "##특": 3791,
      "##관": 3792,
      "##탕": 3793,
      "##차": 3794,
      "##데": 3795,
      "##뷔": 3796,
      "##포": 3797,
      "##왔": 3798,
      "##압": 3799,
      "##응": 3800,
      "##랑": 3801,
      "##막": 3802,
      "##김": 3803,
      "##헌": 3804,
      "##건": 3805,
      "##층": 3806,
      "##3": 3807,
      "##천": 3808,
      "##효": 3809,
      "##뮤": 3810,
      "##때": 3811,
      "##맥": 3812,
      "##S": 3813,
      "##O": 3814,
      "##엔": 3815,
      "##휴": 3816,
      "##뤄": 3817,
      "##싶": 3818,
      "##약": 3819,
      "##활": 3820,
      "##술": 3821,
      "##강": 3822,
      "##함": 3823,
      "##께": 3824,
      "##희": 3825,
      "##끌": 3826,
      "##날": 3827,
      "##추": 3828,
      "##츠": 3829,
      "##펜": 3830,
      "##웨": 3831,
      "##끈": 3832,
      "##애": 3833,
      "##승": 3834,
      "##않": 3835,
      "##잠": 3836,
      "##뿐": 3837,
      "##탄": 3838,
      "##반": 3839,
      "##뒤": 3840,
      "##줬": 3841,
      "##닌": 3842,
      "##눈": 3843,
      "##길": 3844,
      "##브": 3845,
      "##릭": 3846,
      "##엇": 3847,
      "##썼": 3848,
      "##절": 3849,
      "##뛰": 3850,
      "##넘": 3851,
      "##겨": 3852,
      "##왈": 3853,
      "##석": 3854,
      "##최": 3855,
      "##근": 3856,
      "##러": 3857,
      "##A": 3858,
      "##n": 3859,
      "##곰": 3860,
      "##플": 3861,
      "##낙": 3862,
      "##빈": 3863,
      "##번": 3864,
      "##루": 3865,
      "##독": 3866,
      "##목": 3867,
      "##돈": 3868,
      "##왕": 3869,
      "##료": 3870,
      "##청": 3871,
      "##표": 3872,
      "##쩌": 3873,
      "##兵": 3874,
      "##友": 3875,
      "##愛": 3876,
      "##캐": 3877,
      "##5": 3878,
      "##육": 3879,
      "##간": 3880,
      "##족": 3881,
      "##물": 3882,
      "##걷": 3883,
      "##점": 3884,
      "##완": 3885,
      "##될": 3886,
      "##당": 3887,
      "##섰": 3888,
      "##비": 3889,
      "##투": 3890,
      "##a": 3891,
      "##t": 3892,
      "##e": 3893,
      "##l": 3894,
      "##i": 3895,
      "##s": 3896,
      "##룬": 3897,
      "##졌": 3898,
      "##운": 3899,
      "##씩": 3900,
      "##픔": 3901,
      "##삶": 3902,
      "##그": 3903,
      "##찰": 3904,
      "##묵": 3905,
      "##\u0015": 3906,
      "##\u0013": 3907,
      "##알": 3908,
      "##짜": 3909,
      "##룡": 3910,
      "##골": 3911,
      "##갔": 3912,
      "##템": 3913,
      "##따": 3914,
      "##옮": 3915,
      "##P": 3916,
      "##G": 3917,
      "##Q": 3918,
      "##U": 3919,
      "##핸": 3920,
      "##볼": 3921,
      "##필": 3922,
      "##걸": 3923,
      "##충": 3924,
      "##깨": 3925,
      "##야": 3926,
      "##륜": 3927,
      "##쏘": 3928,
      "##법": 3929,
      "##초": 3930,
      "##난": 3931,
      "##꺾": 3932,
      "##노": 3933,
      "##픈": 3934,
      "##헬": 3935,
      "##챔": 3936,
      "##짝": 3937,
      "##쉽": 3938,
      "##u": 3939,
      "##o": 3940,
      "##삽": 3941,
      "##창": 3942,
      "##념": 3943,
      "##큼": 3944,
      "##괜": 3945,
      "##찮": 3946,
      "##됩": 3947,
      "##빛": 3948,
      "##늘": 3949,
      "##놓": 3950,
      "##졸": 3951,
      "##페": 3952,
      "##슬": 3953,
      "##卑": 3954,
      "##而": 3955,
      "##益": 3956,
      "##備": 3957,
      "##者": 3958,
      "##냥": 3959,
      "##였": 3960,
      "##믿": 3961,
      "##혁": 3962,
      "##협": 3963,
      "##집": 3964,
      "##돌": 3965,
      "##듣": 3966,
      "##욱": 3967,
      "##튼": 3968,
      "##살": 3969,
      "##귀": 3970,
      "##잊": 3971,
      "##말": 3972,
      "##읽": 3973,
      "##힌": 3974,
      "##랭": 3975,
      "##킹": 3976,
      "##째": 3977,
      "##웅": 3978,
      "##켜": 3979,
      "##랐": 3980,
      "##욕": 3981,
      "##밖": 3982,
      "##손": 3983,
      "##허": 3984,
      "##갑": 3985,
      "##암": 3986,
      "##잡": 3987,
      "##옷": 3988,
      "##빼": 3989,
      "##곡": 3990,
      "##티": 3991,
      "##T": 3992,
      "##V": 3993,
      "##액": 3994,
      "##ｍ": 3995,
      "##패": 3996,
      "##넣": 3997,
      "##례": 3998,
      "##r": 3999,
      "##p": 4000,
      "##k": 4001,
      "##킬": 4002,
      "##민": 4003,
      "##h": 4004,
      "##g": 4005,
      "##책": 4006,
      "##규": 4007,
      "##첨": 4008,
      "##열": 4009,
      "##띤": 4010,
      "##벌": 4011,
      "##城": 4012,
      "##컬": 4013,
      "##팀": 4014,
      "##롯": 4015,
      "##윤": 4016,
      "##몰": 4017,
      "##뤘": 4018,
      "##누": 4019,
      "##⍁": 4020,
      "##⺩": 4021,
      "##징": 4022,
      "##맺": 4023,
      "##젠": 4024,
      "##락": 4025,
      "##넨": 4026,
      "##항": 4027,
      "##숫": 4028,
      "##쩍": 4029,
      "##ध": 4030,
      "##ী": 4031,
      "##났": 4032,
      "##쪽": 4033,
      "##접": 4034,
      "##찾": 4035,
      "##판": 4036,
      "##멋": 4037,
      "##겸": 4038,
      "##m": 4039,
      "##\u0007": 4040,
      "##첫": 4041,
      "##늠": 4042,
      "##떻": 4043,
      "##끗": 4044,
      "##덜": 4045,
      "##및": 4046,
      "##탐": 4047,
      "##즈": 4048,
      "##콘": 4049,
      "##텐": 4050,
      "##튜": 4051,
      "##셜": 4052,
      "##⊈": 4053,
      "##숙": 4054,
      "##넓": 4055,
      "##커": 4056,
      "##잇": 4057,
      "##큰": 4058,
      "##궁": 4059,
      "##찬": 4060,
      "##맹": 4061,
      "##젝": 4062,
      "##묘": 4063,
      "##써": 4064,
      "##돼": 4065,
      "##쁘": 4066,
      "##깊": 4067,
      "##냈": 4068,
      "##혼": 4069,
      "##긍": 4070,
      "##킨": 4071,
      "##흡": 4072,
      "##네": 4073,
      "##케": 4074,
      "##콥": 4075,
      "##떤": 4076,
      "##뷸": 4077,
      "##닝": 4078,
      "##온": 4079,
      "##짧": 4080,
      "##슷": 4081,
      "##늦": 4082,
      "##y": 4083,
      "##끄": 4084,
      "##휘": 4085,
      "##셀": 4086,
      "##앨": 4087,
      "##퐁": 4088,
      "##즌": 4089,
      "##균": 4090,
      "##폐": 4091,
      "##류": 4092,
      "##긴": 4093,
      "##틱": 4094,
      "##맡": 4095,
      "##삼": 4096,
      "##엘": 4097,
      "##\u001c": 4098,
      "##\u0012": 4099,
      "##\u0016": 4100,
      "##`": 4101,
      "##\u0018": 4102,
      "##d": 4103,
      "##옹": 4104,
      "##쳤": 4105,
      "##객": 4106,
      "##밍": 4107,
      "##엄": 4108,
      "##밀": 4109,
      "##멀": 4110,
      "##삭": 4111,
      "##봉": 4112,
      "##농": 4113,
      "##몸": 4114,
      "##市": 4115,
      "##림": 4116,
      "##픽": 4117,
      "##녀": 4118,
      "##셨": 4119,
      "##꼭": 4120,
      "##텔": 4121,
      "##훼": 4122,
      "##쁜": 4123,
      "##꿈": 4124,
      "##꾸": 4125,
      "##탑": 4126,
      "##䳍": 4127,
      "##㵡": 4128,
      "##릿": 4129,
      "##좌": 4130,
      "##뇌": 4131,
      "##렉": 4132,
      "##느": 4133,
      "##껴": 4134,
      "##쉐": 4135,
      "##럭": 4136,
      "##셔": 4137,
      "##굴": 4138,
      "##륙": 4139,
      "##빌": 4140,
      "##탈": 4141,
      "##퇴": 4142,
      "##뜻": 4143,
      "##즉": 4144,
      "##씨": 4145,
      "##새": 4146,
      "##털": 4147,
      "##첼": 4148,
      "##떨": 4149,
      "##닭": 4150,
      "##닐": 4151,
      "##녹": 4152,
      "##風": 4153,
      "##拂": 4154,
      "##山": 4155,
      "##岡": 4156,
      "##딩": 4157,
      "##b": 4158,
      "##너": 4159,
      "##펼": 4160,
      "##틴": 4161,
      "##랜": 4162,
      "##끼": 4163,
      "##촉": 4164,
      "##\u0010": 4165,
      "##\b": 4166,
      "##\u001a": 4167,
      "##\u0011": 4168,
      "##✜": 4169,
      "##⮬": 4170,
      "##쳐": 4171,
      "##땀": 4172,
      "##흘": 4173,
      "##펙": 4174,
      "##램": 4175,
      "##랫": 4176,
      "##폼": 4177,
      "##볍": 4178,
      "##굵": 4179,
      "##B": 4180,
      "##L": 4181,
      "##칙": 4182,
      "##릴": 4183,
      "##멤": 4184,
      "##택": 4185,
      "##뒀": 4186,
      "##블": 4187,
      "##톤": 4188,
      "##앙": 4189,
      "##풍": 4190,
      "##측": 4191,
      "##덴": 4192,
      "##쇄": 4193,
      "##굳": 4194,
      "##낡": 4195,
      "##짐": 4196,
      "##죽": 4197,
      "##컸": 4198,
      "##촌": 4199,
      "##솟": 4200,
      "##M": 4201,
      "##순": 4202,
      "##봇": 4203,
      "##혈": 4204,
      "##쇼": 4205,
      "##w": 4206,
      "##I": 4207,
      "##둠": 4208,
      "##냐": 4209,
      "##E": 4210,
      "##홈": 4211,
      "##곳": 4212,
      "##융": 4213,
      "##섭": 4214,
      "##쉬": 4215,
      "##슈": 4216,
      "##콩": 4217,
      "##쿠": 4218,
      "##좋": 4219,
      "##앱": 4220,
      "##촬": 4221,
      "##넷": 4222,
      "##져": 4223,
      "##꽤": 4224,
      "##[": 4225,
      "##칼": 4226,
      "##썰": 4227,
      "##R": 4228,
      "##얻": 4229,
      "##딱": 4230,
      "##낄": 4231,
      "##값": 4232,
      "##펴": 4233,
      "##쿄": 4234,
      "##벚": 4235,
      "##꽃": 4236,
      "##닥": 4237,
      "##숨": 4238,
      "##검": 4239,
      "##c": 4240,
      "##싸": 4241,
      "##x": 4242,
      "##J": 4243,
      "##v": 4244,
      "##칠": 4245,
      "##벽": 4246,
      "##못": 4247,
      "##헤": 4248,
      "##뷰": 4249,
      "##X": 4250,
      "##쇠": 4251,
      "##⢑": 4252,
      "##곁": 4253,
      "##f": 4254,
      "##즐": 4255,
      "##뽑": 4256,
      "##뱉": 4257,
      "##ӝ": 4258,
      "##섯": 4259,
      "##㌥": 4260,
      "##셰": 4261,
      "##놈": 4262,
      "##릉": 4263,
      "##깔": 4264,
      "##캠": 4265,
      "##뮬": 4266,
      "##률": 4267,
      "##켓": 4268,
      "##듭": 4269,
      "##둔": 4270,
      "##렴": 4271,
      "##쌍": 4272,
      "##볐": 4273,
      "##푸": 4274,
      "##뱀": 4275,
      "##랍": 4276,
      "##\u0003": 4277,
      "##쓰": 4278,
      "##멸": 4279,
      "##놨": 4280,
      "##몇": 4281,
      "##뭇": 4282,
      "##넬": 4283,
      "##첩": 4284,
      "##틀": 4285,
      "##얘": 4286,
      "##\u001b": 4287,
      "##\u001d": 4288,
      "##꺼": 4289,
      "##룹": 4290,
      "##몽": 4291,
      "##ᇗ": 4292,
      "##H": 4293,
      "##빅": 4294,
      "##잃": 4295,
      "##벨": 4296,
      "##밋": 4297,
      "##렬": 4298,
      "##척": 4299,
      "##잉": 4300,
      "##핑": 4301,
      "##Z": 4302,
      "##끝": 4303,
      "##빙": 4304,
      "##둑": 4305,
      "##낸": 4306,
      "##킥": 4307,
      "##납": 4308,
      "##홀": 4309,
      "##랙": 4310,
      "##챕": 4311,
      "##!": 4312,
      "##'": 4313,
      "##벗": 4314,
      "##엽": 4315,
      "##죠": 4316,
      "##쑤": 4317,
      "##딜": 4318,
      "##꼬": 4319,
      "##닉": 4320,
      "##往": 4321,
      "##╴": 4322,
      "##꾼": 4323,
      "##샷": 4324,
      "##왼": 4325,
      "##닛": 4326,
      "##빠": 4327,
      "##찍": 4328,
      "##땅": 4329,
      "##닮": 4330,
      "##젊": 4331,
      "###": 4332,
      "##੢": 4333,
      "##߹": 4334,
      "##⋉": 4335,
      "##㏎": 4336,
      "##윙": 4337,
      "##칭": 4338,
      "##갉": 4339,
      "##염": 4340,
      "##톡": 4341,
      "##옙": 4342,
      "##q": 4343,
      "##\u000e": 4344,
      "##\u0019": 4345,
      "##\u0017": 4346,
      "##겪": 4347,
      "##괄": 4348,
      "##낮": 4349,
      "##칩": 4350,
      "##킴": 4351,
      "##앗": 4352,
      "##잔": 4353,
      "##혹": 4354,
      "##팔": 4355,
      "##듀": 4356,
      "##옆": 4357,
      "##䩬": 4358,
      "##㥸": 4359,
      "##딤": 4360,
      "##님": 4361,
      "##쌓": 4362,
      "##뚝": 4363,
      "##情": 4364,
      "##㌙": 4365,
      "##⿤": 4366,
      "##눔": 4367,
      "##굉": 4368,
      "##(": 4369,
      "##즘": 4370,
      "##줘": 4371,
      "##왜": 4372,
      "##컵": 4373,
      "##틋": 4374,
      "##맨": 4375,
      "##ƞ": 4376,
      "##ʳ": 4377,
      "##ɮ": 4378,
      "##̹": 4379,
      "##⅁": 4380,
      "##델": 4381,
      "##땐": 4382,
      "##\u000f": 4383,
      "##훨": 4384,
      "##씬": 4385,
      "##客": 4386,
      "##숍": 4387,
      "##폈": 4388,
      "##國": 4389,
      "##돋": 4390,
      "##앉": 4391,
      "##낌": 4392,
      "##빵": 4393,
      "##셸": 4394,
      "##곽": 4395,
      "##팅": 4396,
      "##봤": 4397,
      "##쥐": 4398,
      "##⏔": 4399,
      "##흑": 4400,
      "##흐": 4401,
      "##뜨": 4402,
      "##뎌": 4403,
      "##샤": 4404,
      "##쏠": 4405,
      "##뭘": 4406,
      "##컴": 4407,
      "##퓨": 4408,
      "##뉴": 4409,
      "##쿨": 4410,
      "##깃": 4411,
      "##넌": 4412,
      "##容": 4413,
      "##렀": 4414,
      "##띄": 4415,
      "##탬": 4416,
      "##틈": 4417,
      "##忍": 4418,
      "##禪": 4419,
      "##師": 4420,
      "##맛": 4421,
      "##앓": 4422,
      "##낀": 4423,
      "##윈": 4424,
      "##찔": 4425,
      "##힐": 4426,
      "##팎": 4427,
      "##꼽": 4428,
      "##롭": 4429,
      "##뺑": 4430,
      "##붕": 4431,
      "##괴": 4432,
      "##봄": 4433,
      "##㏸": 4434,
      "##\u0014": 4435,
      "##⢮": 4436,
      "##펌": 4437,
      "##폴": 4438,
      "##핀": 4439,
      "##덧": 4440,
      "##돕": 4441,
      "##깅": 4442,
      "##࿙": 4443,
      "##풀": 4444,
      "##팽": 4445,
      "##링": 4446,
      "##䁕": 4447,
      "##中": 4448,
      "##쏟": 4449,
      "##뜯": 4450,
      "##츰": 4451,
      "##㵔": 4452,
      "##㸈": 4453,
      "##㴭": 4454,
      "##㥠": 4455,
      "##䱜": 4456,
      "##숭": 4457,
      "##넋": 4458,
      "##튬": 4459,
      "##닷": 4460,
      "##둬": 4461,
      "##㵞": 4462,
      "##좁": 4463,
      "##묶": 4464,
      "##뭐": 4465,
      "##웹": 4466,
      "##쯤": 4467,
      "##Y": 4468,
      "##⇥": 4469,
      "##❥": 4470,
      "##℉": 4471,
      "##팠": 4472,
      "##탁": 4473,
      "##.": 4474,
      "##렌": 4475,
      "##팝": 4476,
      "##Ⅱ": 4477,
      "##ᢌ": 4478,
      "##ῠ": 4479,
      "##᪸": 4480,
      "##몫": 4481,
      "##듈": 4482,
      "##ン": 4483,
      "##ナ": 4484,
      "##ノ": 4485,
      "##キ": 4486,
      "##モ": 4487,
      "##チ": 4488,
      "##롬": 4489,
      "##ᠴ": 4490,
      "##ᶥ": 4491,
      "##⋲": 4492,
      "##⌦": 4493,
      "##⋷": 4494,
      "##춤": 4495,
      "##벡": 4496,
      "##묻": 4497,
      "##옐": 4498,
      "##뜀": 4499,
      "##흔": 4500,
      "##늑": 4501,
      "##옛": 4502,
      "##팡": 4503,
      "##좀": 4504,
      "##팬": 4505,
      "##켰": 4506,
      "##츈": 4507,
      "##㿋": 4508,
      "##웃": 4509,
      "##엷": 4510,
      "##뮌": 4511,
      "##헨": 4512,
      "##멜": 4513,
      "##짚": 4514,
      "##윌": 4515,
      "##ਤ": 4516,
      "##빚": 4517,
      "##웠": 4518,
      "##밤": 4519,
      "##궤": 4520,
      "##쁨": 4521,
      "##施": 4522,
      "##둘": 4523,
      "##릇": 4524,
      "##췄": 4525,
      "##앤": 4526,
      "##럴": 4527,
      "##댐": 4528,
      "##쾌": 4529,
      "##㻢": 4530,
      "##놀": 4531,
      "##곤": 4532,
      "##꼼": 4533,
      "##땎": 4534,
      "##띳": 4535,
      "##駖": 4536,
      "##슴": 4537,
      "##퀸": 4538,
      "##낳": 4539,
      "##텀": 4540,
      "##얀": 4541,
      "##᪀": 4542,
      "##툰": 4543,
      "##렵": 4544,
      "##엿": 4545,
      "##ೞ": 4546,
      "##ױ": 4547,
      "##탱": 4548,
      "##巳": 4549,
      "##年": 4550,
      "##싯": 4551,
      "##手": 4552,
      "##奉": 4553,
      "##職": 4554,
      "##젤": 4555,
      "##\"": 4556,
      "##겐": 4557,
      "##걀": 4558,
      "##밟": 4559,
      "##렁": 4560,
      "##릅": 4561,
      "##빨": 4562,
      "##땠": 4563,
      "##닙": 4564,
      "##펠": 4565,
      "##벳": 4566,
      "##죄": 4567,
      "##눴": 4568,
      "##W": 4569,
      "##띠": 4570,
      "##갓": 4571,
      "##㱉": 4572,
      "##뽐": 4573,
      "##셉": 4574,
      "##通": 4575,
      "##制": 4576,
      "##딘": 4577,
      "##ᗡ": 4578,
      "##칸": 4579,
      "##벙": 4580,
      "##샘": 4581,
      "##-": 4582,
      "##셈": 4583,
      "##곧": 4584,
      "##닫": 4585,
      "##꼈": 4586,
      "##̬": 4587,
      "##씀": 4588,
      "##혐": 4589,
      "##䗔": 4590,
      "##㻔": 4591,
      "##궂": 4592,
      "##봐": 4593,
      "##j": 4594,
      "##츌": 4595,
      "##랩": 4596,
      "##캘": 4597,
      "##書": 4598,
      "##痴": 4599,
      "##댄": 4600,
      "##닦": 4601,
      "##켐": 4602,
      "##탓": 4603,
      "##챙": 4604,
      "##밑": 4605,
      "##삐": 4606,
      "##섞": 4607,
      "##겼": 4608,
      "##빗": 4609,
      "##펀": 4610,
      "##멘": 4611,
      "##쿡": 4612,
      "##찌": 4613,
      "##롤": 4614,
      "##ੋ": 4615,
      "##퀴": 4616,
      "##얌": 4617,
      "##꿍": 4618,
      "##誠": 4619,
      "##求": 4620,
      "##숲": 4621,
      "##갭": 4622,
      "##팩": 4623,
      "##떼": 4624,
      "##흰": 4625,
      "##웰": 4626,
      "##숱": 4627,
      "##므": 4628,
      "##史": 4629,
      "##ሥ": 4630,
      "##껏": 4631,
      "##_": 4632,
      "##ਊ": 4633,
      "##ؼ": 4634,
      "##낯": 4635,
      "##靜": 4636,
      "##待": 4637,
      "##譁": 4638,
      "##벼": 4639,
      "##틸": 4640,
      "##ᗲ": 4641,
      "##ᝉ": 4642,
      "##딸": 4643,
      "##쿼": 4644,
      "##쨌": 4645,
      "##死": 4646,
      "##不": 4647,
      "##뀐": 4648,
      "##\u001f": 4649,
      "##㊬": 4650,
      "##꾹": 4651,
      "##눌": 4652,
      "##톱": 4653,
      "##샌": 4654,
      "##샐": 4655,
      "##·": 4656,
      "##믹": 4657,
      "##헛": 4658,
      "##겹": 4659,
      "##딴": 4660,
      "##셍": 4661,
      "##랗": 4662,
      "##붉": 4663,
      "##멈": 4664,
      "##칫": 4665,
      "##낭": 4666,
      "##엑": 4667,
      "##덤": 4668,
      "##솜": 4669,
      "##北": 4670,
      "##㽿": 4671,
      "##녁": 4672,
      "##굿": 4673,
      "##썹": 4674,
      "##횟": 4675,
      "##덮": 4676,
      "##넥": 4677,
      "##行": 4678,
      "##뎠": 4679,
      "##맸": 4680,
      "##쓸": 4681,
      "##舍": 4682,
      "##밴": 4683,
      "##氷": 4684,
      "##期": 4685,
      "##㷀": 4686,
      "##ヴ": 4687,
      "##숏": 4688,
      "##둥": 4689,
      "##껍": 4690,
      "##콤": 4691,
      "##뻘": 4692,
      "##깝": 4693,
      "##큐": 4694,
      "##武": 4695,
      "##兼": 4696,
      "##全": 4697,
      "##룰": 4698,
      "##홉": 4699,
      "##뒷": 4700,
      "##뛴": 4701,
      "##깎": 4702,
      "##섀": 4703,
      "##웁": 4704,
      "##퀄": 4705,
      "##랄": 4706,
      "##뿌": 4707,
      "##텍": 4708,
      "##뻗": 4709,
      "##之": 4710,
      "##計": 4711,
      "##ᣠ": 4712,
      "##웡": 4713,
      "##궐": 4714,
      "##퉁": 4715,
      "##녕": 4716,
      "##梁": 4717,
      "##大": 4718,
      "##捷": 4719,
      "##붐": 4720,
      "##紀": 4721,
      "##훌": 4722,
      "##륭": 4723,
      "##앰": 4724,
      "##Ҋ": 4725,
      "##싼": 4726,
      "##꿨": 4727,
      "##ா": 4728,
      "##촘": 4729,
      "##핏": 4730,
      "##㺈": 4731,
      "##ᴜ": 4732,
      "##感": 4733,
      "##뱅": 4734,
      "##밥": 4735,
      "##싫": 4736,
      "##∹": 4737,
      "##⮽": 4738,
      "##⎊": 4739,
      "##깼": 4740,
      "##챌": 4741,
      "##꼴": 4742,
      "##줍": 4743,
      "##○": 4744,
      "##쁩": 4745,
      "##↳": 4746,
      "##됨": 4747,
      "##풋": 4748,
      "##몹": 4749,
      "##벅": 4750,
      "##퀘": 4751,
      "##䰩": 4752,
      "##㤨": 4753,
      "##䟠": 4754,
      "##뱃": 4755,
      "##룩": 4756,
      "##✐": 4757,
      "##튀": 4758,
      "##닿": 4759,
      "##彼": 4760,
      "##知": 4761,
      "##己": 4762,
      "##百": 4763,
      "##찼": 4764,
      "##옵": 4765,
      "##\u0002": 4766,
      "##᫥": 4767,
      "##뻐": 4768,
      "##끔": 4769,
      "##䁄": 4770,
      "##㸔": 4771,
      "##찹": 4772,
      "##쌀": 4773,
      "##떡": 4774,
      "##끓": 4775,
      "##役": 4776,
      "##콧": 4777,
      "##ઁ": 4778,
      "##붓": 4779,
      "##韜": 4780,
      "##三": 4781,
      "##略": 4782,
      "##엥": 4783,
      "##겔": 4784,
      "##훙": 4785,
      "##ই": 4786,
      "##쩔": 4787,
      "##뻔": 4788,
      "##펫": 4789,
      "##옳": 4790,
      "##쾅": 4791,
      "##࢚": 4792,
      "##ࠗ": 4793,
      "##㸢": 4794,
      "##㩆": 4795,
      "##듬": 4796,
      "##탠": 4797,
      "##롱": 4798,
      "##뼈": 4799,
      "##\u0005": 4800,
      "##몬": 4801,
      "##낍": 4802,
      "##뀌": 4803,
      "##엠": 4804,
      "##횡": 4805,
      "##랏": 4806,
      "##덱": 4807,
      "##엣": 4808,
      "##э": 4809,
      "##깽": 4810,
      "##⃍": 4811,
      "##ܟ": 4812,
      "##댓": 4813,
      "##멕": 4814,
      "##갛": 4815,
      "##઱": 4816,
      "##੘": 4817,
      "##퀀": 4818,
      "##跡": 4819,
      "##雲": 4820,
      "##→": 4821,
      "##삯": 4822,
      "##뉜": 4823,
      "##찜": 4824,
      "##맙": 4825,
      "##갯": 4826,
      "##눠": 4827,
      "##핌": 4828,
      "##自": 4829,
      "##力": 4830,
      "##㪷": 4831,
      "##㶜": 4832,
      "##䁎": 4833,
      "##䌋": 4834,
      "##䌨": 4835,
      "##돔": 4836,
      "##헝": 4837,
      "##푼": 4838,
      "##쫑": 4839,
      "##긋": 4840,
      "##젖": 4841,
      "##㎶": 4842,
      "##툼": 4843,
      "##톰": 4844,
      "##냅": 4845,
      "##훅": 4846,
      "##띈": 4847,
      "##⼲": 4848,
      "##㏲": 4849,
      "##럿": 4850,
      "##멍": 4851,
      "##㢘": 4852,
      "##폰": 4853,
      "##뺄": 4854,
      "##젓": 4855,
      "##)": 4856,
      "##젯": 4857,
      "##흙": 4858,
      "##릎": 4859,
      "##>": 4860,
      "##뺏": 4861,
      "##밌": 4862,
      "##샴": 4863,
      "##䁚": 4864,
      "##㩽": 4865,
      "##뽀": 4866,
      "##퉈": 4867,
      "##엌": 4868,
      "##뜰": 4869,
      "##能": 4870,
      "##使": 4871,
      "##쥔": 4872,
      "##냄": 4873,
      "##쉼": 4874,
      "##슛": 4875,
      "##렐": 4876,
      "##鳴": 4877,
      "##꽂": 4878,
      "##뱌": 4879,
      "##탰": 4880,
      "##헐": 4881,
      "##첸": 4882,
      "##곶": 4883,
      "##뭉": 4884,
      "##팸": 4885,
      "##팰": 4886,
      "##윗": 4887,
      "##곱": 4888,
      "##홋": 4889,
      "##㍸": 4890,
      "##⫹": 4891,
      "##଀": 4892,
      "##㎓": 4893,
      "##儉": 4894,
      "##軍": 4895,
      "##衆": 4896,
      "##웬": 4897,
      "##똘": 4898,
      "##덟": 4899,
      "##짱": 4900,
      "##р": 4901,
      "##҅": 4902,
      "##ദ": 4903,
      "##㋌": 4904,
      "##㍗": 4905,
      "##㋈": 4906,
      "##₝": 4907,
      "##遊": 4908,
      "##㉰": 4909,
      "##…": 4910,
      "##㷼": 4911,
      "##굽": 4912,
      "##밭": 4913,
      "##ਖ਼": 4914,
      "##Ѽ": 4915,
      "##샹": 4916,
      "##뇨": 4917,
      "##蟄": 4918,
      "##맘": 4919,
      "##캡": 4920,
      "##슐": 4921,
      "##깐": 4922,
      "##+": 4923,
      "##䄠": 4924,
      "##䢘": 4925,
      "##䚸": 4926,
      "##䢰": 4927,
      "##䖀": 4928,
      "##䩠": 4929,
      "##똥": 4930,
      "##덩": 4931,
      "##룸": 4932,
      "##갇": 4933,
      "##事": 4934,
      "##東": 4935,
      "##悅": 4936,
      "##쐬": 4937,
      "##싹": 4938,
      "##챗": 4939,
      "##⍯": 4940,
      "##㐍": 4941,
      "##㢬": 4942,
      "##路": 4943,
      "##政": 4944,
      "##署": 4945,
      "##봬": 4946,
      "##웍": 4947,
      "##렘": 4948,
      "##뚫": 4949,
      "##/": 4950,
      "##팁": 4951,
      "##펄": 4952,
      "##⋅": 4953,
      "##쓴": 4954,
      "##⡷": 4955,
      "##㌜": 4956,
      "##㉩": 4957,
      "##⢄": 4958,
      "##쫓": 4959,
      "##쪼": 4960,
      "##꽁": 4961,
      "##㑽": 4962,
      "##킵": 4963,
      "##꾀": 4964,
      "##ܵ": 4965,
      "##엎": 4966,
      "##江": 4967,
      "##욘": 4968,
      "##돛": 4969,
      "##其": 4970,
      "##惰": 4971,
      "##歸": 4972,
      "##也": 4973,
      "##뗄": 4974,
      "##ᢄ": 4975,
      "##잖": 4976,
      "##짙": 4977,
      "##↘": 4978,
      "##⏤": 4979,
      "##⥜": 4980,
      "##⺀": 4981,
      "##뵙": 4982,
      "##윽": 4983,
      "##셋": 4984,
      "##엮": 4985,
      "##꿀": 4986,
      "##▲": 4987,
      "##如": 4988,
      "##治": 4989,
      "##寡": 4990,
      "##씁": 4991,
      "##깥": 4992,
      "##랬": 4993,
      "##텁": 4994,
      "##툴": 4995,
      "##z": 4996,
      "##궈": 4997,
      "##⼘": 4998,
      "##ਗ": 4999,
      "##얹": 5000,
      "##嶺": 5001,
      "##ㄬ": 5002,
      "##믈": 5003,
      "##育": 5004,
      "##뉘": 5005,
      "##콕": 5006,
      "##궜": 5007,
      "##켄": 5008,
      "##휠": 5009,
      "##ፊ": 5010,
      "##ጔ": 5011,
      "##ೢ": 5012,
      "##Ҷ": 5013,
      "##ޛ": 5014,
      "##੍": 5015,
      "##ഊ": 5016,
      "##ധ": 5017,
      "##늬": 5018,
      "##낫": 5019,
      "##㆕": 5020,
      "##㇞": 5021,
      "##ⵅ": 5022,
      "##ⵐ": 5023,
      "##ᢝ": 5024,
      "##딪": 5025,
      "##솥": 5026,
      "##숯": 5027,
      "##뭄": 5028,
      "##솝": 5029,
      "##㲌": 5030,
      "##㺙": 5031,
      "##㸀": 5032,
      "##뿜": 5033,
      "##⊅": 5034,
      "##數": 5035,
      "##形": 5036,
      "##名": 5037,
      "##奇": 5038,
      "##正": 5039,
      "##虛": 5040,
      "##實": 5041,
      "##쐐": 5042,
      "##빴": 5043,
      "##캔": 5044,
      "##神": 5045,
      "##륵": 5046,
      "##얽": 5047,
      "##텼": 5048,
      "##强": 5049,
      "##由": 5050,
      "##他": 5051,
      "##뜸": 5052,
      "##맵": 5053,
      "##㵍": 5054,
      "##㐤": 5055,
      "##〰": 5056,
      "##⧘": 5057,
      "##⎀": 5058,
      "##겟": 5059,
      "##ղ": 5060,
      "##衛": 5061,
      "##部": 5062,
      "##땋": 5063,
      "##꿰": 5064,
      "##㝅": 5065,
      "##舊": 5066,
      "##迎": 5067,
      "##新": 5068,
      "##᭕": 5069,
      "##웸": 5070,
      "##⅙": 5071,
      "##똠": 5072,
      "##詭": 5073,
      "##進": 5074,
      "##驅": 5075,
      "##핍": 5076,
      "##所": 5077,
      "##海": 5078,
      "##副": 5079,
      "##都": 5080,
      "##心": 5081,
      "##뜬": 5082,
      "##턱": 5083,
      "##쉰": 5084,
      "##㠡": 5085,
      "##캇": 5086,
      "##봅": 5087,
      "##⢀": 5088,
      "##פ": 5089,
      "##콰": 5090,
      "##讀": 5091,
      "##是": 5092,
      "##㋊": 5093,
      "##넉": 5094,
      "##ြ": 5095,
      "##ᓣ": 5096,
      "##\u0000": 5097,
      "##쳇": 5098,
      "##二": 5099,
      "##支": 5100,
      "##㻴": 5101,
      "##共": 5102,
      "##報": 5103,
      "##뜩": 5104,
      "##ܿ": 5105,
      "##잦": 5106,
      "##뮴": 5107,
      "##돗": 5108,
      "##橋": 5109,
      "##刑": 5110,
      "##致": 5111,
      "##殷": 5112,
      "##䄻": 5113,
      "##㏥": 5114,
      "##㎞": 5115,
      "##푹": 5116,
      "##렷": 5117,
      "##괌": 5118,
      "##댔": 5119,
      "##෥": 5120,
      "##㉀": 5121,
      "##䨼": 5122,
      "##䵈": 5123,
      "##햇": 5124,
      "##:": 5125,
      "##휩": 5126,
      "##왓": 5127,
      "##엉": 5128,
      "##끽": 5129,
      "##텃": 5130,
      "##臺": 5131,
      "##깬": 5132,
      "##×": 5133,
      "##컫": 5134,
      "##톈": 5135,
      "##뭔": 5136,
      "##֔": 5137,
      "##덥": 5138,
      "##䎡": 5139,
      "##㸩": 5140,
      "##劍": 5141,
      "##ㅈ": 5142,
      "##앵": 5143,
      "##싣": 5144,
      "##흠": 5145,
      "##口": 5146,
      "##녔": 5147,
      "##ۘ": 5148,
      "##ࢢ": 5149,
      "##ଥ": 5150,
      "##ҟ": 5151,
      "##멧": 5152,
      "##⢹": 5153,
      "##씻": 5154,
      "##캣": 5155,
      "##뀔": 5156,
      "##]": 5157,
      "##텅": 5158,
      "##ı": 5159,
      "##ҷ": 5160,
      "##ࢶ": 5161,
      "##캉": 5162,
      "##딥": 5163,
      "##⍹": 5164,
      "##뚜": 5165,
      "##؀": 5166,
      "##짠": 5167,
      "##쳉": 5168,
      "##⏰": 5169,
      "##샛": 5170,
      "##갱": 5171,
      "##귄": 5172,
      "##㶀": 5173,
      "##㊭": 5174,
      "##": 5175,
      "##⩈": 5176,
      "##읊": 5177,
      "##띕": 5178,
      "##㋐": 5179,
      "##㋉": 5180,
      "##㏁": 5181,
      "##㋎": 5182,
      "##㷔": 5183,
      "##䅼": 5184,
      "##䉻": 5185,
      "##䃔": 5186,
      "##䀚": 5187,
      "##㯴": 5188,
      "##菩": 5189,
      "##提": 5190,
      "##下": 5191,
      "##化": 5192,
      "##生": 5193,
      "##食": 5194,
      "##性": 5195,
      "##츄": 5196,
      "##썬": 5197,
      "##뤼": 5198,
      "##學": 5199,
      "##校": 5200,
      "##㋇": 5201,
      "##㋋": 5202,
      "##㋏": 5203,
      "##㋍": 5204,
      "##㏏": 5205,
      "##㏓": 5206,
      "##팟": 5207,
      "##㏠": 5208,
      "##㼖": 5209,
      "##읍": 5210,
      "##㿗": 5211,
      "##䋢": 5212,
      "##㺝": 5213,
      "##河": 5214,
      "##줏": 5215,
      "##땄": 5216,
      "##뮈": 5217,
      "##탭": 5218,
      "##士": 5219,
      "##㏤": 5220,
      "##利": 5221,
      "##緣": 5222,
      "##㆙": 5223,
      "##쥬": 5224,
      "##柱": 5225,
      "##衣": 5226,
      "##꼿": 5227,
      "##ೂ": 5228,
      "##☴": 5229,
      "##⥄": 5230,
      "##㉸": 5231,
      "##⯁": 5232,
      "##줌": 5233,
      "##⤹": 5234,
      "##뻑": 5235,
      "##늪": 5236,
      "##門": 5237,
      "##唐": 5238,
      "##州": 5239,
      "##界": 5240,
      "##戰": 5241,
      "##딛": 5242,
      "##䯜": 5243,
      "##䓝": 5244,
      "##㱔": 5245,
      "##૑": 5246,
      "##ࣻ": 5247,
      "##톨": 5248,
      "##숄": 5249,
      "##雅": 5250,
      "##物": 5251,
      "##㯿": 5252,
      "##䖸": 5253,
      "##㿐": 5254,
      "##䲸": 5255,
      "##㷴": 5256,
      "##뗐": 5257,
      "##٘": 5258,
      "##॔": 5259,
      "##ح": 5260,
      "##ܳ": 5261,
      "##᩟": 5262,
      "##➗": 5263,
      "##큘": 5264,
      "##룽": 5265,
      "##੉": 5266,
      "##*": 5267,
      "##㍼": 5268,
      "##允": 5269,
      "##洙": 5270,
      "##뚱": 5271,
      "##횃": 5272,
      "##뺐": 5273,
      "##春": 5274,
      "##車": 5275,
      "##뵈": 5276,
      "##똑": 5277,
      "##谷": 5278,
      "##ౙ": 5279,
      "##찝": 5280,
      "##陽": 5281,
      "##尉": 5282,
      "##止": 5283,
      "##윅": 5284,
      "##륨": 5285,
      "##美": 5286,
      "##㫛": 5287,
      "##샬": 5288,
      "##ड़": 5289,
      "##時": 5290,
      "##訥": 5291,
      "##꿔": 5292,
      "##짬": 5293,
      "##뽕": 5294,
      "##㆛": 5295,
      "##㆚": 5296,
      "##㆔": 5297,
      "##㆖": 5298,
      "##卿": 5299,
      "##᩵": 5300,
      "##ᾎ": 5301,
      "##ۉ": 5302,
      "##㳼": 5303,
      "##갚": 5304,
      "##家": 5305,
      "##ਸ": 5306,
      "##Չ": 5307,
      "##Ὸ": 5308,
      "##ᴤ": 5309,
      "##ᓐ": 5310,
      "##ⴵ": 5311,
      "##勳": 5312,
      "##䌝": 5313,
      "##㜰": 5314,
      "##밧": 5315,
      "##鬪": 5316,
      "##試": 5317,
      "##팥": 5318,
      "##⍳": 5319,
      "##⼸": 5320,
      "##㸘": 5321,
      "##㻘": 5322,
      "##䏼": 5323,
      "##섹": 5324,
      "##귈": 5325,
      "##얗": 5326,
      "##辰": 5327,
      "##셩": 5328,
      "##࠺": 5329,
      "##\u0001": 5330,
      "##¬": 5331,
      "##\u0006": 5332,
      "##룻": 5333,
      "##랠": 5334,
      "##㩁": 5335,
      "##ڳ": 5336,
      "##ڤ": 5337,
      "##뮐": 5338,
      "##䁅": 5339,
      "##和": 5340,
      "##筆": 5341,
      "##墨": 5342,
      "##ᥝ": 5343,
      "##䞴": 5344,
      "##떳": 5345,
      "##힙": 5346,
      "##月": 5347,
      "##鎭": 5348,
      "##쁠": 5349,
      "##⶙": 5350,
      "##以": 5351,
      "##爲": 5352,
      "##天": 5353,
      "##㿌": 5354,
      "##㷫": 5355,
      "##⁲": 5356,
      "##놔": 5357,
      "##깜": 5358,
      "##뼛": 5359,
      "##૓": 5360,
      "##近": 5361,
      "##舟": 5362,
      "##ܹ": 5363,
      "##켈": 5364,
      "##⸀": 5365,
      "##⒍": 5366,
      "##흩": 5367,
      "##女": 5368,
      "##Ռ": 5369,
      "##ἴ": 5370,
      "##ࡼ": 5371,
      "##팍": 5372,
      "##太": 5373,
      "##平": 5374,
      "##旬": 5375,
      "##節": 5376,
      "##籍": 5377,
      "##輿": 5378,
      "##䐆": 5379,
      "##㷾": 5380,
      "##技": 5381,
      "##館": 5382,
      "##잤": 5383,
      "##可": 5384,
      "##已": 5385,
      "##ө": 5386,
      "##日": 5387,
      "##彈": 5388,
      "##必": 5389,
      "##墜": 5390,
      "##寇": 5391,
      "##勿": 5392,
      "##迫": 5393,
      "##쉴": 5394,
      "##죗": 5395,
      "##ட": 5396,
      "##ೠ": 5397,
      "##핼": 5398,
      "##Ⅾ": 5399,
      "##튿": 5400,
      "##컷": 5401,
      "##늄": 5402,
      "##氣": 5403,
      "##意": 5404,
      "##本": 5405,
      "##淸": 5406,
      "##源": 5407,
      "##↑": 5408,
      "##╙": 5409,
      "##슝": 5410,
      "##䤼": 5411,
      "##ੌ": 5412,
      "##•": 5413,
      "##쑥": 5414,
      "##⧨": 5415,
      "##캅": 5416,
      "##᲋": 5417,
      "##相": 5418,
      "##救": 5419,
      "##ὅ": 5420,
      "##䯝": 5421,
      "##韓": 5422,
      "##컥": 5423,
      "##亂": 5424,
      "##훔": 5425,
      "##힝": 5426,
      "##庫": 5427,
      "##엾": 5428,
      "##ᅖ": 5429,
      "##튠": 5430,
      "##⪌": 5431,
      "##갤": 5432,
      "##왱": 5433,
      "##잭": 5434,
      "##랴": 5435,
      "##㑬": 5436,
      "##ᦸ": 5437,
      "##白": 5438,
      "##㢜": 5439,
      "##命": 5440,
      "##義": 5441,
      "##밈": 5442,
      "##~": 5443,
      "##쌈": 5444,
      "##뛸": 5445,
      "##隊": 5446,
      "##펭": 5447,
      "##ㆼ": 5448,
      "##龍": 5449,
      "##㷋": 5450,
      "##島": 5451,
      "##䄪": 5452,
      "##⊄": 5453,
      "##빔": 5454,
      "##㣶": 5455,
      "##㐪": 5456,
      "##न": 5457,
      "##㺵": 5458,
      "##늉": 5459,
      "##⁝": 5460,
      "##人": 5461,
      "##툭": 5462,
      "##욤": 5463,
      "##紙": 5464,
      "##멓": 5465,
      "##Ⅲ": 5466,
      "##੊": 5467,
      "##੓": 5468,
      "##캄": 5469,
      "##귑": 5470,
      "##繼": 5471,
      "##光": 5472,
      "##㏨": 5473,
      "##內": 5474,
      "##⢤": 5475,
      "##險": 5476,
      "##葬": 5477,
      "##關": 5478,
      "##": 5479,
      "##須": 5480,
      "##應": 5481,
      "##⌴": 5482,
      "##⌭": 5483,
      "##覓": 5484,
      "##賞": 5485,
      "##ₙ": 5486,
      "##⍪": 5487,
      "##य": 5488,
      "##ੰ": 5489,
      "##짊": 5490,
      "##馬": 5491,
      "##넝": 5492,
      "##元": 5493,
      "##王": 5494,
      "##后": 5495,
      "##群": 5496,
      "##羊": 5497,
      "##䐗": 5498,
      "##씌": 5499,
      "##⭵": 5500,
      "##⎄": 5501,
      "##⍈": 5502,
      "##⺽": 5503,
      "##㽼": 5504,
      "##㳱": 5505,
      "##Ⓦ": 5506,
      "##뺀": 5507,
      "##來": 5508,
      "##水": 5509,
      "##面": 5510,
      "##%": 5511,
      "##ԋ": 5512,
      "##흉": 5513,
      "##녘": 5514,
      "##鋒": 5515,
      "##뗀": 5516,
      "##◤": 5517,
      "##맑": 5518,
      "##䯭": 5519,
      "##㦂": 5520,
      "##䳓": 5521,
      "##勝": 5522,
      "##섦": 5523,
      "##̀": 5524,
      "##Ć": 5525,
      "##Ѩ": 5526,
      "##Ր": 5527,
      "##֙": 5528,
      "##ࡸ": 5529,
      "##ܻ": 5530,
      "##ನ": 5531,
      "##ೣ": 5532,
      "##렛": 5533,
      "##쑹": 5534,
      "##숴": 5535,
      "##뱁": 5536,
      "##䁇": 5537,
      "##䳘": 5538,
      "##삵": 5539,
      "##헹": 5540,
      "##‧": 5541,
      "##䦌": 5542,
      "##㸰": 5543,
      "##씰": 5544,
      "##㷸": 5545,
      "##㌸": 5546,
      "##民": 5547,
      "##李": 5548,
      "##낵": 5549,
      "##驿": 5550,
      "##①": 5551,
      "##탔": 5552,
      "##㩃": 5553,
      "##㸚": 5554,
      "##㸄": 5555,
      "##㺧": 5556,
      "##倉": 5557,
      "##院": 5558,
      "##얄": 5559,
      "##≷": 5560,
      "##㠜": 5561,
      "##䏹": 5562,
      "##㣭": 5563,
      "##䑨": 5564,
      "##׼": 5565,
      "##훗": 5566,
      "##⼥": 5567,
      "##㍠": 5568,
      "##價": 5569,
      "##딧": 5570,
      "##甫": 5571,
      "##敎": 5572,
      "##令": 5573,
      "##䁜": 5574,
      "##䬩": 5575,
      "##㢑": 5576,
      "##Ⅰ": 5577,
      "##밸": 5578,
      "##쎈": 5579,
      "##வ": 5580,
      "##ϱ": 5581,
      "##㠑": 5582,
      "##옴": 5583,
      "##分": 5584,
      "##興": 5585,
      "##放": 5586,
      "##榜": 5587,
      "##㊓": 5588,
      "##症": 5589,
      "##⢘": 5590,
      "##⒌": 5591,
      "##਷": 5592,
      "##】": 5593,
      "##맴": 5594,
      "##뻤": 5595,
      "##긁": 5596,
      "##씽": 5597,
      "##雀": 5598,
      "##펑": 5599,
      "##챘": 5600,
      "##⩎": 5601,
      "##ᤰ": 5602,
      "##先": 5603,
      "##後": 5604,
      "##۹": 5605,
      "##о": 5606,
      "##㼫": 5607,
      "##䁼": 5608,
      "##㳴": 5609,
      "##䂂": 5610,
      "##䄿": 5611,
      "##㪚": 5612,
      "##뿔": 5613,
      "##Ქ": 5614,
      "##辭": 5615,
      "##쾰": 5616,
      "##䕈": 5617,
      "##द": 5618,
      "##쏴": 5619,
      "##ᔁ": 5620,
      "##ۅ": 5621,
      "##ઓ": 5622,
      "##䌠": 5623,
      "##팻": 5624,
      "##⋀": 5625,
      "##祝": 5626,
      "##ᶠ": 5627,
      "##仁": 5628,
      "##遠": 5629,
      "##㍘": 5630,
      "##샵": 5631,
      "##굣": 5632,
      "##立": 5633,
      "##協": 5634,
      "##會": 5635,
      "##㽵": 5636,
      "##㕴": 5637,
      "##ࢿ": 5638,
      "##ஂ": 5639,
      "##蒙": 5640,
      "##主": 5641,
      "##㷈": 5642,
      "##녜": 5643,
      "##े": 5644,
      "##耐": 5645,
      "##ㇹ": 5646,
      "##䇄": 5647,
      "##禍": 5648,
      "##種": 5649,
      "##쏙": 5650,
      "##쭉": 5651,
      "##⮺": 5652,
      "##昌": 5653,
      "##園": 5654,
      "##텟": 5655,
      "##架": 5656,
      "##圖": 5657,
      "##屛": 5658,
      "##電": 5659,
      "##髮": 5660,
      "##防": 5661,
      "##겉": 5662,
      "##ㄖ": 5663,
      "##±": 5664,
      "##꽉": 5665,
      "##㺠": 5666,
      "##㸕": 5667,
      "##㴘": 5668,
      "##䳌": 5669,
      "##䨜": 5670,
      "##厚": 5671,
      "##쑨": 5672,
      "##볕": 5673,
      "##智": 5674,
      "##뇔": 5675,
      "##換": 5676,
      "##兩": 5677,
      "##箭": 5678,
      "##꺽": 5679,
      "##㌘": 5680,
      "##⾣": 5681,
      "##㍹": 5682,
      "##╢": 5683,
      "##Ễ": 5684,
      "##䅔": 5685,
      "##⻡": 5686,
      "##⥬": 5687,
      "##⏴": 5688,
      "##㘨": 5689,
      "##ᩱ": 5690,
      "##⼣": 5691,
      "##Ჩ": 5692,
      "##૯": 5693,
      "##잎": 5694,
      "##㻜": 5695,
      "##쎄": 5696,
      "##ѐ": 5697,
      "##ࣗ": 5698,
      "##䯱": 5699,
      "##ߣ": 5700,
      "##ഐ": 5701,
      "##ℽ": 5702,
      "##쫙": 5703,
      "##肉": 5704,
      "##㏀": 5705,
      "##Ȫ": 5706,
      "##꿇": 5707,
      "##㷜": 5708,
      "##⊔": 5709,
      "##ᓽ": 5710,
      "##子": 5711,
      "##잣": 5712,
      "##Ⅳ": 5713,
      "##㍙": 5714,
      "##₁": 5715,
      "##딕": 5716,
      "##亭": 5717,
      "##प": 5718,
      "##അ": 5719,
      "##䫸": 5720,
      "##ボ": 5721,
      "##則": 5722,
      "##得": 5723,
      "##聚": 5724,
      "##࢜": 5725,
      "##Ӛ": 5726,
      "##㎬": 5727,
      "##틔": 5728,
      "##㢐": 5729,
      "##⢈": 5730,
      "##⸁": 5731,
      "##㉕": 5732,
      "##␱": 5733,
      "##㏰": 5734,
      "##㼪": 5735,
      "##⥨": 5736,
      "##骨": 5737,
      "##ޖ": 5738,
      "##԰": 5739,
      "##옌": 5740,
      "##㘩": 5741,
      "##썩": 5742,
      "##;": 5743,
      "##慶": 5744,
      "##惡": 5745,
      "##流": 5746,
      "##配": 5747,
      "##地": 5748,
      "##䎜": 5749,
      "##멱": 5750,
      "##떴": 5751,
      "##\u001e": 5752,
      "##屯": 5753,
      "##굶": 5754,
      "##?": 5755,
      "##춧": 5756,
      "##曜": 5757,
      "##옅": 5758,
      "##䓸": 5759,
      "##䐀": 5760,
      "##䶭": 5761,
      "##꽝": 5762,
      "##里": 5763,
      "##尺": 5764,
      "##加": 5765,
      "##於": 5766,
      "##敵": 5767,
      "##ୃ": 5768,
      "##얇": 5769,
      "##찐": 5770,
      "##ᡰ": 5771,
      "##ⴘ": 5772,
      "##䁙": 5773,
      "##ᡐ": 5774,
      "##ی": 5775,
      "##ï": 5776,
      "##݅": 5777,
      "##變": 5778,
      "##創": 5779,
      "##殿": 5780,
      "##낚": 5781,
      "##챈": 5782,
      "##㠚": 5783,
      "##ⓖ": 5784,
      "##롄": 5785,
      "##肆": 5786,
      "##ਃ": 5787,
      "##㢭": 5788,
      "##핫": 5789,
      "##䢚": 5790,
      "##Ә": 5791,
      "##ⴔ": 5792,
      "##䇕": 5793,
      "##㼅": 5794,
      "##찢": 5795,
      "##룀": 5796,
      "##팹": 5797,
      "##듦": 5798,
      "##道": 5799,
      "##顯": 5800,
      "##現": 5801,
      "##㼌": 5802,
      "##我": 5803,
      "##齋": 5804,
      "##=": 5805,
      "##Ꮤ": 5806,
      "##ᇕ": 5807,
      "##὿": 5808,
      "##㊠": 5809,
      "##ࢎ": 5810,
      "##ҙ": 5811,
      "##눅": 5812,
      "##【": 5813,
      "##外": 5814,
      "##記": 5815,
      "##짰": 5816,
      "##左": 5817,
      "##陣": 5818,
      "##ऑ": 5819,
      "##㿾": 5820,
      "##곬": 5821,
      "##폿": 5822,
      "##類": 5823,
      "##轉": 5824,
      "##用": 5825,
      "##ౝ": 5826,
      "##畵": 5827,
      "##音": 5828,
      "##㱰": 5829,
      "##넸": 5830,
      "##ኄ": 5831,
      "##ᑰ": 5832,
      "##ẅ": 5833,
      "##ᢈ": 5834,
      "##Ꮻ": 5835,
      "##칵": 5836,
      "##왁": 5837,
      "##쫀": 5838,
      "##ℇ": 5839,
      "##뇰": 5840,
      "##⾙": 5841,
      "##⬤": 5842,
      "##巷": 5843,
      "##庸": 5844,
      "##눕": 5845,
      "##川": 5846,
      "##ֳ": 5847,
      "##靈": 5848,
      "##팜": 5849,
      "##ച": 5850,
      "##ݶ": 5851,
      "##섣": 5852,
      "##⛸": 5853,
      "##㉼": 5854,
      "##᜜": 5855,
      "##쩐": 5856,
      "##⑀": 5857,
      "##㊘": 5858,
      "##間": 5859,
      "##毋": 5860,
      "##맏": 5861,
      "##삿": 5862,
      "##䝡": 5863,
      "##甘": 5864,
      "##☎": 5865,
      "##⢁": 5866,
      "##㶄": 5867,
      "##۽": 5868,
      "##㮞": 5869,
      "##䊄": 5870,
      "##⭃": 5871,
      "##㎂": 5872,
      "##킷": 5873,
      "##푯": 5874,
      "##官": 5875,
      "##폄": 5876,
      "##볶": 5877,
      "##將": 5878,
      "##前": 5879,
      "##一": 5880,
      "##小": 5881,
      "##剛": 5882,
      "##Ḁ": 5883,
      "##掠": 5884,
      "##䐠": 5885,
      "##맷": 5886,
      "##㻂": 5887,
      "##䁛": 5888,
      "##쭐": 5889,
      "##멩": 5890,
      "##쏜": 5891,
      "##⿼": 5892,
      "##浩": 5893,
      "##곗": 5894,
      "##〝": 5895,
      "##同": 5896,
      "##欲": 5897,
      "##맣": 5898,
      "##묏": 5899,
      "##℅": 5900,
      "##⃘": 5901,
      "##䱤": 5902,
      "##䲼": 5903,
      "##뗏": 5904,
      "##ח": 5905,
      "##♥": 5906,
      "##⎉": 5907,
      "##⟈": 5908,
      "##㝡": 5909,
      "##㶤": 5910,
      "##⅚": 5911,
      "##⇍": 5912,
      "##₳": 5913,
      "##⿀": 5914,
      "##㆜": 5915,
      "##냘": 5916,
      "##✀": 5917,
      "##質": 5918,
      "##ȹ": 5919,
      "##ɜ": 5920,
      "##汎": 5921,
      "##宅": 5922,
      "##弘": 5923,
      "##빤": 5924,
      "##⺬": 5925,
      "##쨍": 5926,
      "##恤": 5927,
      "##甲": 5928,
      "##ὐ": 5929,
      "##卽": 5930,
      "##묽": 5931,
      "##ಱ": 5932,
      "##ᶬ": 5933,
      "##쐈": 5934,
      "##䯠": 5935,
      "##㠌": 5936,
      "##㴥": 5937,
      "##큽": 5938,
      "##又": 5939,
      "##쏭": 5940,
      "##냠": 5941,
      "##썸": 5942,
      "##㺬": 5943,
      "##뎀": 5944,
      "##ߑ": 5945,
      "##㺕": 5946,
      "##쿤": 5947,
      "##괘": 5948,
      "##㪜": 5949,
      "##䁥": 5950,
      "##重": 5951,
      "##꽹": 5952,
      "##⌁": 5953,
      "##ᅅ": 5954,
      "##㤮": 5955,
      "##御": 5956,
      "##射": 5957,
      "##፻": 5958,
      "##Ჭ": 5959,
      "##뚤": 5960,
      "##舵": 5961,
      "##䄱": 5962,
      "##੽": 5963,
      "##㒐": 5964,
      "##⼋": 5965,
      "##댕": 5966,
      "##귓": 5967,
      "##䵱": 5968,
      "##»": 5969,
      "##善": 5970,
      "##㎉": 5971,
      "##컹": 5972,
      "##澤": 5973,
      "##ᥨ": 5974,
      "##㵐": 5975,
      "##⇚": 5976,
      "##禮": 5977,
      "##讚": 5978,
      "##ݽ": 5979,
      "##攻": 5980,
      "##⏌": 5981,
      "##⹨": 5982,
      "##᠍": 5983,
      "##ᾶ": 5984,
      "##⁹": 5985,
      "##䢐": 5986,
      "##얕": 5987,
      "##䦐": 5988,
      "##果": 5989,
      "##⼡": 5990,
      "##੡": 5991,
      "##⇄": 5992,
      "##給": 5993,
      "##᩹": 5994,
      "##ሧ": 5995,
      "##ᇞ": 5996,
      "##ሦ": 5997,
      "##ሙ": 5998,
      "##ሓ": 5999,
      "##ሕ": 6000,
      "##ሔ": 6001,
      "##ም": 6002,
      "##ሑ": 6003,
      "##ሢ": 6004,
      "##ሩ": 6005,
      "##ሜ": 6006,
      "##ᇟ": 6007,
      "##宗": 6008,
      "##둡": 6009,
      "##⊠": 6010,
      "##㑘": 6011,
      "##ಕ": 6012,
      "##㊥": 6013,
      "##陳": 6014,
      "##ろ": 6015,
      "##좇": 6016,
      "##➻": 6017,
      "##샅": 6018,
      "##▨": 6019,
      "##紅": 6020,
      "##ឩ": 6021,
      "##껐": 6022,
      "##꿴": 6023,
      "##養": 6024,
      "##晦": 6025,
      "##텨": 6026,
      "##ഡ": 6027,
      "##西": 6028,
      "##೧": 6029,
      "##윔": 6030,
      "##옭": 6031,
      "##⒴": 6032,
      "##㽤": 6033,
      "##➱": 6034,
      "##຦": 6035,
      "##病": 6036,
      "##㼭": 6037,
      "##훤": 6038,
      "##魔": 6039,
      "##約": 6040,
      "##請": 6041,
      "##服": 6042,
      "##㎤": 6043,
      "##䀺": 6044,
      "##蔚": 6045,
      "##姿": 6046,
      "##ᩛ": 6047,
      "##ᇨ": 6048,
      "##ᜯ": 6049,
      "##排": 6050,
      "##ৈ": 6051,
      "##ㆸ": 6052,
      "##㐈": 6053,
      "##㰀": 6054,
      "##㞠": 6055,
      "##錫": 6056,
      "##奎": 6057,
      "##벵": 6058,
      "##ݴ": 6059,
      "##": 6060,
      "##⪜": 6061,
      "##䄮": 6062,
      "##患": 6063,
      "##넜": 6064,
      "##派": 6065,
      "##䊰": 6066,
      "##휼": 6067,
      "##交": 6068,
      "##合": 6069,
      "##出": 6070,
      "##側": 6071,
      "##ⵥ": 6072,
      "##ᐅ": 6073,
      "##ᕜ": 6074,
      "##ᾁ": 6075,
      "##Ӝ": 6076,
      "##ᐌ": 6077,
      "##਽": 6078,
      "##៼": 6079,
      "##聞": 6080,
      "##京": 6081,
      "##췌": 6082,
      "##科": 6083,
      "##ᅕ": 6084,
      "##㺹": 6085,
      "##೐": 6086,
      "##㥨": 6087,
      "##ഃ": 6088,
      "##⮰": 6089,
      "##㻾": 6090,
      "##㔔": 6091,
      "##詐": 6092,
      "##動": 6093,
      "##獨": 6094,
      "##₃": 6095,
      "##‣": 6096,
      "##מ": 6097,
      "##˚": 6098,
      "##˜": 6099,
      "##씹": 6100,
      "##隨": 6101,
      "##錄": 6102,
      "##᫦": 6103,
      "##㞵": 6104,
      "##쥘": 6105,
      "##華": 6106,
      "##땔": 6107,
      "##섶": 6108,
      "##⼽": 6109,
      "##⧴": 6110,
      "##見": 6111,
      "##挑": 6112,
      "##흼": 6113,
      "##⋦": 6114,
      "##富": 6115,
      "##承": 6116,
      "##業": 6117,
      "##㴴": 6118,
      "##⏱": 6119,
      "##▐": 6120,
      "##㼠": 6121,
      "##毖": 6122,
      "##ᡭ": 6123,
      "##觀": 6124,
      "##稙": 6125,
      "##㉘": 6126,
      "##⛭": 6127,
      "##靄": 6128,
      "##廛": 6129,
      "##權": 6130,
      "##⿍": 6131,
      "##銳": 6132,
      "##׊": 6133,
      "##⼍": 6134,
      "##댈": 6135,
      "##뎅": 6136,
      "##陵": 6137,
      "##چ": 6138,
      "##◬": 6139,
      "##᫓": 6140,
      "##셴": 6141,
      "##ץ": 6142,
      "##魃": 6143,
      "##돆": 6144,
      "##魂": 6145,
      "##떂": 6146,
      "##ꂾ": 6147,
      "##』": 6148,
      "##㺅": 6149,
      "##ੂ": 6150,
      "##㱱": 6151,
      "##㓁": 6152,
      "##ૐ": 6153,
      "##ೡ": 6154,
      "##츤": 6155,
      "##⇊": 6156,
      "##㨎": 6157,
      "##햅": 6158,
      "##에서": 6159,
      "##으로": 6160,
      "##했다": 6161,
      "##하는": 6162,
      "##하고": 6163,
      "##있다": 6164,
      "##이다": 6165,
      "##한다": 6166,
      "##훈련": 6167,
      "##02": 6168,
      "##00": 6169,
      "##니다": 6170,
      "##수있": 6171,
      "202": 6172,
      "##부대": 6173,
      "##었다": 6174,
      "##위해": 6175,
      "##들이": 6176,
      "##됐다": 6177,
      "##작전": 6178,
      "##전투": 6179,
      "##에게": 6180,
      "##까지": 6181,
      "##에는": 6182,
      "##부터": 6183,
      "##적인": 6184,
      "##하고있다": 6185,
      "##하기": 6186,
      "##지원": 6187,
      "##면서": 6188,
      "##지않": 6189,
      "##장병": 6190,
      "##국방": 6191,
      "##교육": 6192,
      "##대한": 6193,
      "##력을": 6194,
      "##기자": 6195,
      "##고있다": 6196,
      "##지만": 6197,
      "##적으로": 6198,
      "##하게": 6199,
      "##하며": 6200,
      "##지난": 6201,
      "육군": 6202,
      "##시간": 6203,
      "##위한": 6204,
      "##있는": 6205,
      "##우리": 6206,
      "##습니다": 6207,
      "##10": 6208,
      "##할수있": 6209,
      "##4년": 6210,
      "##들의": 6211,
      "##기술": 6212,
      "##\u0003\u0003": 6213,
      "##국가": 6214,
      "##들은": 6215,
      "##통해": 6216,
      "##군사": 6217,
      "##함께": 6218,
      "##사단": 6219,
      "국방": 6220,
      "##19": 6221,
      "##제공": 6222,
      "##겠다": 6223,
      "##도록": 6224,
      "##전쟁": 6225,
      "##요일": 6226,
      "##이어": 6227,
      "##임무": 6228,
      "##수행": 6229,
      "##한국": 6230,
      "##체계": 6231,
      "에서": 6232,
      "##20": 6233,
      "##에도": 6234,
      "##장은": 6235,
      "##지역": 6236,
      "##된다": 6237,
      "이라": 6238,
      "##상황": 6239,
      "##기를": 6240,
      "##성을": 6241,
      "##군의": 6242,
      "##시아": 6243,
      "##았다": 6244,
      "##혔다": 6245,
      "##안보": 6246,
      "##사령": 6247,
      "으로": 6248,
      "##하다": 6249,
      "##이나": 6250,
      "##강화": 6251,
      "##는것": 6252,
      "##통령": 6253,
      "우리": 6254,
      "2024년": 6255,
      "한국": 6256,
      "##202": 6257,
      "##수있다": 6258,
      "##경기": 6259,
      "##에따": 6260,
      "##회의": 6261,
      "##연구": 6262,
      "##미국": 6263,
      "##밝혔다": 6264,
      "##학교": 6265,
      "##대회": 6266,
      "##협력": 6267,
      "##대대": 6268,
      "##이라": 6269,
      "##대응": 6270,
      "##육군": 6271,
      "##해군": 6272,
      "##1일": 6273,
      "##5년": 6274,
      "##발전": 6275,
      "##을보": 6276,
      "##해야": 6277,
      "##12": 6278,
      "##과정": 6279,
      "##관계": 6280,
      "연합": 6281,
      "##정보": 6282,
      "##말했다": 6283,
      "##북한": 6284,
      "훈련": 6285,
      "##항공": 6286,
      "20": 6287,
      "19": 6288,
      "##열린": 6289,
      "이번": 6290,
      "지난": 6291,
      "##사를": 6292,
      "##필요": 6293,
      "##뉴스": 6294,
      "##대통령": 6295,
      "##진행": 6296,
      "##활동": 6297,
      "##하면서": 6298,
      "),": 6299,
      "##사업": 6300,
      "##양한": 6301,
      "##중요": 6302,
      "##시작": 6303,
      "공군": 6304,
      "##에서는": 6305,
      "##군인": 6306,
      "특히": 6307,
      "##되는": 6308,
      "##안전": 6309,
      "##000": 6310,
      "##에대한": 6311,
      "##였다": 6312,
      "##\u0010\u0016": 6313,
      "##16": 6314,
      "##세계": 6315,
      "##가능": 6316,
      "##민국": 6317,
      "##사는": 6318,
      "##보다": 6319,
      "##국민": 6320,
      "##계획": 6321,
      "##정부": 6322,
      "##30": 6323,
      "##활용": 6324,
      "부대": 6325,
      "##대상": 6326,
      "연합뉴스": 6327,
      "##들어": 6328,
      "##분야": 6329,
      "##프로": 6330,
      "해군": 6331,
      "##이상": 6332,
      "##들을": 6333,
      "##리는": 6334,
      "##능력": 6335,
      "##전략": 6336,
      "##장을": 6337,
      "##졌다": 6338,
      "##로운": 6339,
      "##병대": 6340,
      "##전력": 6341,
      "##월2": 6342,
      ")'": 6343,
      "##아니": 6344,
      "##사람": 6345,
      "##보병": 6346,
      "했다": 6347,
      "##태세": 6348,
      "##같은": 6349,
      "고말했다": 6350,
      "##관리": 6351,
      "##대표": 6352,
      "##등을": 6353,
      "##지는": 6354,
      "##지를": 6355,
      "##서울": 6356,
      "25": 6357,
      "##11": 6358,
      "##비행": 6359,
      "##훈련을": 6360,
      "##무기": 6361,
      "##한미": 6362,
      "##는다": 6363,
      "##은이": 6364,
      "##하겠다": 6365,
      "##는이": 6366,
      "##관련": 6367,
      "##확인": 6368,
      "##생각": 6369,
      "미국": 6370,
      "##7일": 6371,
      "##여단": 6372,
      "##기념": 6373,
      "##스트": 6374,
      "##는데": 6375,
      "##방안": 6376,
      "##대비": 6377,
      "##장관": 6378,
      "##개발": 6379,
      "##하는것": 6380,
      "##이었다": 6381,
      "##추진": 6382,
      "##사격": 6383,
      "##참여": 6384,
      "##가족": 6385,
      "##사령부": 6386,
      "##준비": 6387,
      "##정신": 6388,
      "##을받": 6389,
      "##의미": 6390,
      "##국제": 6391,
      "##가장": 6392,
      "##으며": 6393,
      "##문화": 6394,
      "##지휘": 6395,
      "##사회": 6396,
      "##기에": 6397,
      "##5일": 6398,
      "##운용": 6399,
      "##장비": 6400,
      "##3일": 6401,
      "##없이": 6402,
      "##평가": 6403,
      "##4일": 6404,
      "##명이": 6405,
      "##하면": 6406,
      "##장에서": 6407,
      "##모습": 6408,
      "##전문": 6409,
      "##공격": 6410,
      "##하기위해": 6411,
      "##대로": 6412,
      "##자신": 6413,
      "##선수": 6414,
      "##에따라": 6415,
      "##을다": 6416,
      "##사관": 6417,
      "##예비": 6418,
      "##보병사단": 6419,
      "##연합": 6420,
      "##기관": 6421,
      "##참석": 6422,
      "##8일": 6423,
      "##지못": 6424,
      "##방위": 6425,
      "##강조": 6426,
      "##er": 6427,
      "##보훈": 6428,
      "##을지": 6429,
      "##리를": 6430,
      "##크라": 6431,
      "##사이": 6432,
      "##마음": 6433,
      "##개최": 6434,
      "북한": 6435,
      "##사일": 6436,
      "##공군": 6437,
      "##들에게": 6438,
      "##이스": 6439,
      "##예정": 6440,
      "##목표": 6441,
      "##\u0010\u0016\u001a": 6442,
      "##정책": 6443,
      "전투": 6444,
      "##하나": 6445,
      "##리고": 6446,
      "##한것": 6447,
      "##역할": 6448,
      "##이고": 6449,
      "##참가": 6450,
      "##러시아": 6451,
      "##상을": 6452,
      "##AI": 6453,
      "##기동": 6454,
      "##노력": 6455,
      "##나라": 6456,
      "##모든": 6457,
      "##이후": 6458,
      "##많은": 6459,
      "##할것": 6460,
      "##생활": 6461,
      "##때문": 6462,
      "##작품": 6463,
      "##운데": 6464,
      "이라고": 6465,
      "##전시": 6466,
      "##식을": 6467,
      "##주의": 6468,
      "##다양한": 6469,
      "##능력을": 6470,
      "##과학": 6471,
      "##환경": 6472,
      "##리그": 6473,
      "##확대": 6474,
      "##을위한": 6475,
      "##3년": 6476,
      "##유지": 6477,
      "##시즌": 6478,
      "##50": 6479,
      "##점을": 6480,
      "##결과": 6481,
      "##위협": 6482,
      "##포함": 6483,
      "##을위해": 6484,
      "##대전": 6485,
      "##합니다": 6486,
      "##왔다": 6487,
      "##할수있는": 6488,
      "##처럼": 6489,
      "##했던": 6490,
      "##을통해": 6491,
      "##들과": 6492,
      "##성과": 6493,
      "##에서열린": 6494,
      "##행사": 6495,
      "##기록": 6496,
      "##경험": 6497,
      "##중국": 6498,
      "##이지": 6499,
      "##부는": 6500,
      "##시설": 6501,
      "##참전": 6502,
      "##문제": 6503,
      "##장이": 6504,
      "##우주": 6505,
      "##구성": 6506,
      "##찾아": 6507,
      "##전우": 6508,
      "##산업": 6509,
      "##에서도": 6510,
      "##2년": 6511,
      "##모두": 6512,
      "##아니라": 6513,
      "##하지않": 6514,
      "##없는": 6515,
      "##위원": 6516,
      "##올해": 6517,
      "##통합": 6518,
      "##발표": 6519,
      "##에대": 6520,
      "##기업": 6521,
      "##성공": 6522,
      "##사용": 6523,
      "##참모": 6524,
      "##대를": 6525,
      "##만원": 6526,
      "##번째": 6527,
      "##임무를": 6528,
      "##크라이나": 6529,
      "##화를": 6530,
      "##시스": 6531,
      "##\u0013\u0015": 6532,
      "국가": 6533,
      "대한": 6534,
      "##1년": 6535,
      "##마련": 6536,
      "##구축": 6537,
      "##이번": 6538,
      "##자는": 6539,
      "2025년": 6540,
      "##기도": 6541,
      "##할수": 6542,
      "##\u0013\u0015\u0010": 6543,
      "\u001c\u0017": 6544,
      "##장교": 6545,
      "##기가": 6546,
      "##월1": 6547,
      "##본부": 6548,
      "교육": 6549,
      "그러": 6550,
      "##그램": 6551,
      "이어": 6552,
      "##센터": 6553,
      "##업무": 6554,
      "##on": 6555,
      "##렸다": 6556,
      "##대한민국": 6557,
      "##단은": 6558,
      "##개선": 6559,
      "##이뤄": 6560,
      "##을전": 6561,
      "##기위해": 6562,
      "##자유": 6563,
      "##\u0015\u0013": 6564,
      "##고있": 6565,
      "##사랑": 6566,
      "##동안": 6567,
      "##더욱": 6568,
      "##랑스": 6569,
      "올해": 6570,
      "##성이": 6571,
      "##설명": 6572,
      "##자가": 6573,
      "사진": 6574,
      "##미사일": 6575,
      "##자리": 6576,
      "25전쟁": 6577,
      "##가지": 6578,
      "##가는": 6579,
      "##주요": 6580,
      "##6일": 6581,
      "##우수": 6582,
      "##드론": 6583,
      "##일보": 6584,
      "##할수있다": 6585,
      "##하는데": 6586,
      "##을이": 6587,
      "##의무": 6588,
      "##기반": 6589,
      "##18": 6590,
      "##방어": 6591,
      "##비롯": 6592,
      "##도발": 6593,
      "##레이": 6594,
      "##도를": 6595,
      "##공유": 6596,
      "##운영": 6597,
      "##국방부": 6598,
      "하는": 6599,
      "##리아": 6600,
      "##방산": 6601,
      "##오는": 6602,
      "##가운데": 6603,
      "##이자": 6604,
      "##핵심": 6605,
      "##럼프": 6606,
      "##방문": 6607,
      "##근무": 6608,
      "##하고있": 6609,
      "##해야한다": 6610,
      "\u001c\u0017\u001a": 6611,
      "장병": 6612,
      "하지만": 6613,
      "##다는": 6614,
      "##경우": 6615,
      "##입니다": 6616,
      "##를통해": 6617,
      "##스타": 6618,
      "##인공": 6619,
      "\u0003\u0003\u0003": 6620,
      "##\u001a\u001c": 6621,
      "##으로서": 6622,
      "##다고": 6623,
      "##지막": 6624,
      "##기로": 6625,
      "##17": 6626,
      "##동맹": 6627,
      "##것이다": 6628,
      "##러한": 6629,
      "##\u0013\u0015\u0010\u0015\u0013": 6630,
      "##\u0013\u0015\u0010\u0015\u0013\u001a\u001c": 6631,
      "##사고": 6632,
      "##미래": 6633,
      "##자를": 6634,
      "##원이": 6635,
      "##과함께": 6636,
      "##지속": 6637,
      "##ti": 6638,
      "10": 6639,
      "이다": 6640,
      "해병대": 6641,
      "##사진": 6642,
      "##기대": 6643,
      "##발생": 6644,
      "##기간": 6645,
      "한미": 6646,
      "현지": 6647,
      "##이는": 6648,
      "##기회": 6649,
      "##2일": 6650,
      "##보고": 6651,
      "##개인": 6652,
      "##수있는": 6653,
      "AI": 6654,
      "서울": 6655,
      "##적용": 6656,
      "##실시": 6657,
      "##감독": 6658,
      "##점검": 6659,
      "고밝혔다": 6660,
      "병영": 6661,
      "##우승": 6662,
      "##경제": 6663,
      "##명의": 6664,
      "##전술": 6665,
      "##에선": 6666,
      "##le": 6667,
      "##감을": 6668,
      "##시스템": 6669,
      "##구조": 6670,
      "##최고": 6671,
      "##도로": 6672,
      "##9일": 6673,
      "##라엘": 6674,
      "##군수": 6675,
      "##결정": 6676,
      "##학생": 6677,
      "##은지난": 6678,
      "##변화": 6679,
      "##여러": 6680,
      "##in": 6681,
      "##다른": 6682,
      "##사가": 6683,
      "##원의": 6684,
      "##공개": 6685,
      "##내용": 6686,
      "##으로도": 6687,
      "##사령관": 6688,
      "라는": 6689,
      "있다": 6690,
      "##공동": 6691,
      "##처음": 6692,
      "##거나": 6693,
      "##새로운": 6694,
      "##제로": 6695,
      "##복무": 6696,
      "##거리": 6697,
      "##태세를": 6698,
      "그는": 6699,
      "##논의": 6700,
      "##군이": 6701,
      "##이야": 6702,
      "##대는": 6703,
      "##나가": 6704,
      "##적극": 6705,
      "##0년": 6706,
      "##것으로": 6707,
      "##감사": 6708,
      "##돌아": 6709,
      "부대제공": 6710,
      "##를위해": 6711,
      "##공연": 6712,
      "##14": 6713,
      "##메달": 6714,
      "##간부": 6715,
      "##에관": 6716,
      "##기는": 6717,
      "##현장": 6718,
      "##헌신": 6719,
      "##35": 6720,
      "##예정이다": 6721,
      "##다시": 6722,
      "##원을": 6723,
      "##중심": 6724,
      "##확보": 6725,
      "##혁신": 6726,
      "15": 6727,
      "##에이": 6728,
      "##적을": 6729,
      "##리스": 6730,
      "##주관": 6731,
      "##분석": 6732,
      "##역량": 6733,
      ".\"": 6734,
      "##기때문": 6735,
      "##통제": 6736,
      "##통신": 6737,
      "##규모": 6738,
      "국민": 6739,
      "##아이": 6740,
      "##보호": 6741,
      "##했고": 6742,
      "##or": 6743,
      "##장병들이": 6744,
      "군사": 6745,
      "##대의": 6746,
      "##방법": 6747,
      "##수함": 6748,
      "##음악": 6749,
      "##만큼": 6750,
      "##대가": 6751,
      "##전달": 6752,
      "##적이": 6753,
      "##200": 6754,
      "##치를": 6755,
      "##합동": 6756,
      "##평화": 6757,
      "##집중": 6758,
      "##전을": 6759,
      "##기지": 6760,
      "##없다": 6761,
      "##해병대": 6762,
      "##피해": 6763,
      "##특수": 6764,
      "##최초": 6765,
      "##\u0002\u0002": 6766,
      "국방부": 6767,
      "##라는": 6768,
      "##방향": 6769,
      "##투입": 6770,
      "\u0003\u0003\u0003\u0003": 6771,
      "국제": 6772,
      "##고있는": 6773,
      "##을맞": 6774,
      "##유공": 6775,
      "##정을": 6776,
      "##국의": 6777,
      "##수준": 6778,
      "##만들": 6779,
      "\u001c\u0017\u001a\u0010\u0016\u001a": 6780,
      "16": 6781,
      "이후": 6782,
      "##군은": 6783,
      "##국내": 6784,
      "##영향": 6785,
      "##특별": 6786,
      "##효과": 6787,
      "##최근": 6788,
      "##운동": 6789,
      "##책임": 6790,
      "##장과": 6791,
      "##중인": 6792,
      "##심을": 6793,
      "##등이": 6794,
      "##순간": 6795,
      "##제시": 6796,
      "##실전": 6797,
      "##7년": 6798,
      "##최대": 6799,
      "##강조했다": 6800,
      "##이터": 6801,
      "##15": 6802,
      "##경쟁": 6803,
      "##주는": 6804,
      "##향상": 6805,
      "##림픽": 6806,
      "또한": 6807,
      "##대화": 6808,
      "##교수": 6809,
      "##부분": 6810,
      "##만에": 6811,
      "##명을": 6812,
      "##에대해": 6813,
      "군인": 6814,
      "##나는": 6815,
      "##자의": 6816,
      "##축구": 6817,
      "##야한다": 6818,
      "##예비군": 6819,
      "##이해": 6820,
      "##고려": 6821,
      "##을수": 6822,
      "##전했다": 6823,
      "##정비": 6824,
      "##추가": 6825,
      "##필요한": 6826,
      "##프로그램": 6827,
      "##했습니다": 6828,
      "##역시": 6829,
      "##절차": 6830,
      "##운드": 6831,
      "##이라고": 6832,
      "##방안을": 6833,
      "최근": 6834,
      "##로서": 6835,
      "##우크라이나": 6836,
      "##주년": 6837,
      "##바탕": 6838,
      "##독립": 6839,
      "##대위": 6840,
      "##에맞": 6841,
      "##주민": 6842,
      "##도움": 6843,
      "##랜드": 6844,
      "##수있도록": 6845,
      "대한민국": 6846,
      "기술": 6847,
      "##두고": 6848,
      "##안정": 6849,
      "##을가": 6850,
      "##전사": 6851,
      "##단계": 6852,
      "##직접": 6853,
      "##어려": 6854,
      "##이있": 6855,
      "##사례": 6856,
      "##조직": 6857,
      "##출전": 6858,
      "##an": 6859,
      "##en": 6860,
      "##il": 6861,
      "##할수있도록": 6862,
      "보훈": 6863,
      "##이되": 6864,
      "##유엔": 6865,
      "##위를": 6866,
      "##소개": 6867,
      "##선정": 6868,
      "##역사": 6869,
      "##인도": 6870,
      "##역할을": 6871,
      "현지시간": 6872,
      "##전개": 6873,
      "##르면": 6874,
      "##제작": 6875,
      "##서는": 6876,
      "##신속": 6877,
      "##포츠": 6878,
      "##승리": 6879,
      "##반도": 6880,
      "##비스": 6881,
      "전쟁": 6882,
      "##한뒤": 6883,
      "##기획": 6884,
      "##외교": 6885,
      "##은그": 6886,
      "##현재": 6887,
      "##시에": 6888,
      "##억원": 6889,
      "##넘어": 6890,
      "##최선": 6891,
      "##당시": 6892,
      "이라며": 6893,
      "##이라는": 6894,
      "지역": 6895,
      "##라고": 6896,
      "##정상": 6897,
      "##진다": 6898,
      "##과의": 6899,
      "##었던": 6900,
      "국내": 6901,
      "##을때": 6902,
      "##용사": 6903,
      "##높은": 6904,
      "##함정": 6905,
      "\u0003\u0013\u0015\u0010\u0015\u0013\u001a\u001c": 6906,
      "37": 6907,
      "##이동": 6908,
      "##으면": 6909,
      "##를받": 6910,
      "##해상": 6911,
      "##원은": 6912,
      "##치는": 6913,
      "##배우": 6914,
      "##인이": 6915,
      "##ar": 6916,
      "18": 6917,
      "러시아": 6918,
      "##을기": 6919,
      "##로벌": 6920,
      "##에나": 6921,
      "##보여": 6922,
      "##생도": 6923,
      "2024": 6924,
      "##지난해": 6925,
      "이는": 6926,
      "현재": 6927,
      "##사실": 6928,
      "##같이": 6929,
      "##하기위한": 6930,
      "##지능": 6931,
      "##공식": 6932,
      "##시행": 6933,
      "##금요일": 6934,
      "##감시": 6935,
      "##인다": 6936,
      "라고": 6937,
      "##을선": 6938,
      "##체험": 6939,
      "##일본": 6940,
      "##국군": 6941,
      "##수출": 6942,
      "##성장": 6943,
      "##것이": 6944,
      "##월요일": 6945,
      "##냈다": 6946,
      "그리고": 6947,
      "##위험": 6948,
      "##자들이": 6949,
      "##100": 6950,
      "##서로": 6951,
      "##발사": 6952,
      "##했다고": 6953,
      "지난해": 6954,
      "##부사관": 6955,
      "##음을": 6956,
      "##계약": 6957,
      "##발굴": 6958,
      "##비행단": 6959,
      "하고": 6960,
      "##이를": 6961,
      "##정한": 6962,
      "##의전": 6963,
      "##조치": 6964,
      "##예술": 6965,
      "##경찰": 6966,
      "##등의": 6967,
      "##만들어": 6968,
      "##울러": 6969,
      "##종합": 6970,
      "##이아": 6971,
      "##달성": 6972,
      "##기본": 6973,
      "##시키": 6974,
      "##선발": 6975,
      "##바로": 6976,
      "##하기로": 6977,
      "##중요한": 6978,
      "안보": 6979,
      "지금": 6980,
      "##단체": 6981,
      "##와함께": 6982,
      "##아가": 6983,
      "##도전": 6984,
      "##동원": 6985,
      "##수호": 6986,
      "##주도": 6987,
      "##쳤다": 6988,
      "##도시": 6989,
      "##올림픽": 6990,
      "##여명이": 6991,
      "##계속": 6992,
      "##협약": 6993,
      "##he": 6994,
      "##대에": 6995,
      "##기준": 6996,
      "##리가": 6997,
      "##교류": 6998,
      "##중한": 6999,
      "##력이": 7000,
      "##평양": 7001,
      "그러나": 7002,
      "%)": 7003,
      "아울러": 7004,
      "##군단": 7005,
      "##상호": 7006,
      "##전에서": 7007,
      "##알려": 7008,
      "##북한의": 7009,
      "##활동을": 7010,
      "##계획이다": 7011,
      "세계": 7012,
      "이러한": 7013,
      "항공": 7014,
      "##대학": 7015,
      "##르는": 7016,
      "##자로": 7017,
      "##방식": 7018,
      "##할때": 7019,
      "##수요일": 7020,
      "이날": 7021,
      "##이용": 7022,
      "##대장": 7023,
      "##기부": 7024,
      "##제를": 7025,
      "##경계": 7026,
      "##복지": 7027,
      "##희생": 7028,
      "##al": 7029,
      "##라이": 7030,
      "##라운드": 7031,
      "##다가": 7032,
      "##렇게": 7033,
      "##의지": 7034,
      "##후보": 7035,
      "##무리": 7036,
      "##6월": 7037,
      "##창설": 7038,
      "##첨단": 7039,
      "##\u0011\u0018": 7040,
      "국군": 7041,
      "##라인": 7042,
      "##이유": 7043,
      "##있었다": 7044,
      "##으나": 7045,
      "##조사": 7046,
      "##제도": 7047,
      "##공간": 7048,
      "##8년": 7049,
      "##강한": 7050,
      "##뿐만": 7051,
      "##났다": 7052,
      "##하는등": 7053,
      "##바탕으로": 7054,
      "작전": 7055,
      "##의견": 7056,
      "##어떤": 7057,
      "##신뢰": 7058,
      "##끌어": 7059,
      "##표현": 7060,
      "##완수": 7061,
      "##숙달": 7062,
      "##하고자": 7063,
      "##한다는": 7064,
      "##유의": 7065,
      "##도입": 7066,
      "##자체": 7067,
      "##공중": 7068,
      "##1월": 7069,
      "##트럼프": 7070,
      "##6년": 7071,
      "##인지": 7072,
      "##설치": 7073,
      "##담당": 7074,
      "##at": 7075,
      "##협의": 7076,
      "##좋은": 7077,
      "##\u0014\u0013": 7078,
      "##2024": 7079,
      "##대상으로": 7080,
      "예비": 7081,
      "한다": 7082,
      "##하던": 7083,
      "##지금": 7084,
      "##의사": 7085,
      "##자격": 7086,
      "##리더": 7087,
      "##25": 7088,
      "##파병": 7089,
      "##되지않": 7090,
      "##무원": 7091,
      "##활약": 7092,
      "##es": 7093,
      "##설명했다": 7094,
      "##을거": 7095,
      "##지도": 7096,
      "##마지막": 7097,
      "##중이다": 7098,
      "##소통": 7099,
      "##확립": 7100,
      "##60": 7101,
      "##40": 7102,
      "##개월": 7103,
      "##\u0003\u0003\u0003\u0003": 7104,
      "국방일보": 7105,
      "##임무수행": 7106,
      "##16일": 7107,
      "##30일": 7108,
      "##11월": 7109,
      "중국": 7110,
      "##전히": 7111,
      "##연속": 7112,
      "##해주": 7113,
      "##토의": 7114,
      "##화요일": 7115,
      "##80": 7116,
      "##무관": 7117,
      "##바이": 7118,
      "##연구소": 7119,
      "200": 7120,
      "프로": 7121,
      "##위로": 7122,
      "##조종": 7123,
      "##어난": 7124,
      "##13": 7125,
      "##요구": 7126,
      "##소화": 7127,
      "##8월": 7128,
      "##인사": 7129,
      "##차지": 7130,
      "##20일": 7131,
      "##대통령은": 7132,
      "##이가": 7133,
      "##이날": 7134,
      "##하려": 7135,
      "##하도록": 7136,
      "##대에서": 7137,
      "##유럽": 7138,
      "##기억": 7139,
      "##스로": 7140,
      "##해외": 7141,
      "##영웅": 7142,
      "##요소": 7143,
      "##서비스": 7144,
      "##무엇": 7145,
      "##인의": 7146,
      "##테러": 7147,
      "##생방": 7148,
      "##차량": 7149,
      "##차례": 7150,
      "##잠수함": 7151,
      "##필수": 7152,
      "##10일": 7153,
      "##전역": 7154,
      "##조성": 7155,
      "##현우": 7156,
      "##무인": 7157,
      ").": 7158,
      "일본": 7159,
      "##를위한": 7160,
      "##기의": 7161,
      "##세를": 7162,
      "##수상": 7163,
      "##수도": 7164,
      "##오른": 7165,
      "##7월": 7166,
      "##남자": 7167,
      "##em": 7168,
      "##그룹": 7169,
      "##떻게": 7170,
      "##하고있는": 7171,
      "이라는": 7172,
      "합동": 7173,
      "##로스": 7174,
      "##전에": 7175,
      "##정치": 7176,
      "##병원": 7177,
      "##현대": 7178,
      "##현실": 7179,
      "##높이": 7180,
      "##헌혈": 7181,
      "##물을": 7182,
      "##전문가": 7183,
      "##고민": 7184,
      "##전비": 7185,
      "##사로": 7186,
      "##도했다": 7187,
      "##시험": 7188,
      "##소리": 7189,
      "##인한": 7190,
      "##반기": 7191,
      "##목요일": 7192,
      "##500": 7193,
      "##지휘관": 7194,
      "##라도": 7195,
      "##한번": 7196,
      "##사항": 7197,
      "##연기자": 7198,
      "##체결": 7199,
      "##해결": 7200,
      "##의료": 7201,
      "##움을": 7202,
      "##는2": 7203,
      "##국립": 7204,
      "##등으로": 7205,
      "##배치": 7206,
      "##갔다": 7207,
      "##페이지": 7208,
      "##지난달": 7209,
      "##참석했다": 7210,
      "면서": 7211,
      "##이될": 7212,
      "##달러": 7213,
      "##단순": 7214,
      "##유해": 7215,
      "##진출": 7216,
      "##미술": 7217,
      "##자동": 7218,
      "##교관": 7219,
      "##마다": 7220,
      "##마스": 7221,
      "##가치": 7222,
      "##오후": 7223,
      "##만나": 7224,
      "##작업": 7225,
      "##인은": 7226,
      "##따라": 7227,
      "##협력을": 7228,
      "##검토": 7229,
      "##웠다": 7230,
      "##훈련은": 7231,
      "##10월": 7232,
      "##과학기술": 7233,
      "##tion": 7234,
      "##에관한": 7235,
      "##유공자": 7236,
      "\u0003\u0013\u0015\u0010\u0015\u0013\u001a\u001c\u0010\u0016\u001a": 7237,
      "17": 7238,
      "mil": 7239,
      "종합": 7240,
      "##이란": 7241,
      "##대학교": 7242,
      "##상태": 7243,
      "##전망": 7244,
      "##호국": 7245,
      "##의이": 7246,
      "##적의": 7247,
      "##2월": 7248,
      "##부상": 7249,
      "##영상": 7250,
      "##매우": 7251,
      "##CT": 7252,
      "##ter": 7253,
      "##초청": 7254,
      "##민간": 7255,
      "##199": 7256,
      "##체계를": 7257,
      "##자신의": 7258,
      "##기때문이다": 7259,
      "다양한": 7260,
      "##해양": 7261,
      "##조선": 7262,
      "##예산": 7263,
      "##올랐": 7264,
      "##9년": 7265,
      "##워크": 7266,
      "##생산": 7267,
      "##OO": 7268,
      "##최선을다": 7269,
      "문화": 7270,
      "응모": 7271,
      "##안타": 7272,
      "##유도": 7273,
      "##나타": 7274,
      "##극복": 7275,
      "##영화": 7276,
      "##수가": 7277,
      "##보는": 7278,
      "##프리": 7279,
      "##것은": 7280,
      "##속에서": 7281,
      "##무장": 7282,
      "##인간": 7283,
      "##강력": 7284,
      "##물론": 7285,
      "##상황을": 7286,
      "##12월": 7287,
      "일반": 7288,
      "필자": 7289,
      "##이있다": 7290,
      "##하지못": 7291,
      "##고한": 7292,
      "##고싶": 7293,
      "##을까": 7294,
      "##정예": 7295,
      "##정찰": 7296,
      "##앞서": 7297,
      "##문을": 7298,
      "##소령": 7299,
      "##처리": 7300,
      "##합의": 7301,
      "##청년": 7302,
      "##임무를수행": 7303,
      "앞으로도": 7304,
      "이상": 7305,
      "정부": 7306,
      "##와의": 7307,
      "##정은": 7308,
      "##해안": 7309,
      "##어진": 7310,
      "##24": 7311,
      "##주목": 7312,
      "##린다": 7313,
      "##인식": 7314,
      "##각각": 7315,
      "##판단": 7316,
      "##으로써": 7317,
      "##는것을": 7318,
      "##이스라엘": 7319,
      "30": 7320,
      "고있다": 7321,
      "미래": 7322,
      "서현우": 7323,
      "왼쪽": 7324,
      "이에": 7325,
      "전시": 7326,
      "##이전": 7327,
      "##존재": 7328,
      "##하자": 7329,
      "##전대": 7330,
      "##장으로": 7331,
      "##연주": 7332,
      "##게됐다": 7333,
      "##세미": 7334,
      "##어나": 7335,
      "##많이": 7336,
      "##방송": 7337,
      "##중앙": 7338,
      "##시대": 7339,
      "##프티": 7340,
      "##생명": 7341,
      "##텐츠": 7342,
      "##작전수행": 7343,
      "##경기에서": 7344,
      "##비롯해": 7345,
      "까지": 7346,
      "위해": 7347,
      "이를": 7348,
      "있는": 7349,
      "한화": 7350,
      "##사청": 7351,
      "##기능": 7352,
      "##기여": 7353,
      "##기프티": 7354,
      "##예방": 7355,
      "##2차": 7356,
      "##보이": 7357,
      "##주로": 7358,
      "##인정": 7359,
      "##nd": 7360,
      "##ic": 7361,
      "##\u0016\u0013": 7362,
      "##펼쳐": 7363,
      "##\u0011\u0014": 7364,
      "##작전을": 7365,
      "육군3": 7366,
      "##상황에서": 7367,
      "##에따르면": 7368,
      "##사이버": 7369,
      "##기프티콘": 7370,
      "##사의": 7371,
      "##에걸": 7372,
      "##기존": 7373,
      "##받아": 7374,
      "##도가": 7375,
      "##위에": 7376,
      "##해나": 7377,
      "##자이": 7378,
      "##자기": 7379,
      "##회를": 7380,
      "##부문": 7381,
      "##여자": 7382,
      "##3월": 7383,
      "##야구": 7384,
      "##촬영": 7385,
      "##롭게": 7386,
      "육군5": 7387,
      "##기술을": 7388,
      "##는것이다": 7389,
      "전문": 7390,
      "##이었": 7391,
      "##지구": 7392,
      "##나다": 7393,
      "##제한": 7394,
      "##원들이": 7395,
      "##공감": 7396,
      "##실천": 7397,
      "##가아": 7398,
      "##은2": 7399,
      "##수리": 7400,
      "##행동": 7401,
      "##보면": 7402,
      "##것을": 7403,
      "##치고": 7404,
      "##바란": 7405,
      "##섰다": 7406,
      "##보훈부": 7407,
      "##뿐만아니라": 7408,
      "kr": 7409,
      "우크라이나": 7410,
      "이원": 7411,
      "정보": 7412,
      "##게임": 7413,
      "##움직": 7414,
      "##적이고": 7415,
      "##원에서": 7416,
      "##회는": 7417,
      "##예상": 7418,
      "##레스": 7419,
      "##홍보": 7420,
      "##가있": 7421,
      "##주포": 7422,
      "##프랑스": 7423,
      "##획득": 7424,
      "##강연": 7425,
      "##강원": 7426,
      "##희망": 7427,
      "##겼다": 7428,
      "##국방일보": 7429,
      "##연구원": 7430,
      "무인": 7431,
      "이런": 7432,
      "함께": 7433,
      "행사": 7434,
      "##고도": 7435,
      "##디어": 7436,
      "##의창": 7437,
      "##자세": 7438,
      "##부여": 7439,
      "##부산": 7440,
      "##할예정이다": 7441,
      "##중대": 7442,
      "##선택": 7443,
      "##월드": 7444,
      "##it": 7445,
      "##페인": 7446,
      "##장관은": 7447,
      "트럼프": 7448,
      "##을모": 7449,
      "##장의": 7450,
      "##기와": 7451,
      "##세대": 7452,
      "##9월": 7453,
      "##부를": 7454,
      "##언제": 7455,
      "##트를": 7456,
      "##크게": 7457,
      "##격려": 7458,
      "##독일": 7459,
      "##완벽": 7460,
      "##19일": 7461,
      "##활용해": 7462,
      "같은": 7463,
      "그래": 7464,
      "스포츠": 7465,
      "임무": 7466,
      "##을마": 7467,
      "##상대": 7468,
      "##연계": 7469,
      "##지의": 7470,
      "##기다": 7471,
      "##세요": 7472,
      "##드는": 7473,
      "##의대": 7474,
      "##공급": 7475,
      "##여건": 7476,
      "##발휘": 7477,
      "##개국": 7478,
      "##증가": 7479,
      "##데이터": 7480,
      "##건설": 7481,
      "##효율": 7482,
      "##함을": 7483,
      "##함대": 7484,
      "##훈련에": 7485,
      "##우리나라": 7486,
      "##진행됐다": 7487,
      "드론": 7488,
      "마지막": 7489,
      "지원": 7490,
      "##하루": 7491,
      "##전체": 7492,
      "##연결": 7493,
      "##아미": 7494,
      "##먼저": 7495,
      "##의중요": 7496,
      "##자인": 7497,
      "##등장": 7498,
      "##만의": 7499,
      "##선배": 7500,
      "##줬다": 7501,
      "##5월": 7502,
      "##om": 7503,
      "##너지": 7504,
      "##한다고": 7505,
      "##은이날": 7506,
      "서현우기자": 7507,
      "이원준": 7508,
      "24": 7509,
      "당시": 7510,
      "영국": 7511,
      "##한이": 7512,
      "##한반도": 7513,
      "##로나": 7514,
      "##사건": 7515,
      "##아래": 7516,
      "##해당": 7517,
      "##의한": 7518,
      "##제는": 7519,
      "##병력": 7520,
      "##일상": 7521,
      "##메이": 7522,
      "##4월": 7523,
      "##개념": 7524,
      "##란드": 7525,
      "##반영": 7526,
      "##브리": 7527,
      "##골을": 7528,
      "##느끼": 7529,
      "##홈페이지": 7530,
      "##장병들의": 7531,
      "사이": 7532,
      "##을것": 7533,
      "##사와": 7534,
      "##임관": 7535,
      "##외국": 7536,
      "##니아": 7537,
      "##해서": 7538,
      "##는지": 7539,
      "##어린": 7540,
      "##일이": 7541,
      "##가자": 7542,
      "##가되": 7543,
      "##성능": 7544,
      "##소방": 7545,
      "##글로벌": 7546,
      "##주제로": 7547,
      "##작은": 7548,
      "##출신": 7549,
      "##길을": 7550,
      "##물관": 7551,
      "##콘텐츠": 7552,
      "##지않고": 7553,
      "우리는": 7554,
      "199": 7555,
      "##목표를": 7556,
      "\u001c\u0019": 7557,
      "사회": 7558,
      "##양국": 7559,
      "##이며": 7560,
      "##이필요": 7561,
      "##장면": 7562,
      "##지컬": 7563,
      "##에있는": 7564,
      "##스라엘": 7565,
      "##해왔다": 7566,
      "##원기자": 7567,
      "##방침": 7568,
      "##수를": 7569,
      "##시범": 7570,
      "##행복": 7571,
      "##행사를": 7572,
      "##복합": 7573,
      "##인천": 7574,
      "##47": 7575,
      "##억제": 7576,
      "##37": 7577,
      "##살아": 7578,
      "##열기자": 7579,
      "##LB": 7580,
      "##국민의": 7581,
      "니다": 7582,
      "모두": 7583,
      "모든": 7584,
      "우주": 7585,
      "##다음": 7586,
      "##한화": 7587,
      "##고자": 7588,
      "##을앞": 7589,
      "##을갖": 7590,
      "##대행": 7591,
      "##안을": 7592,
      "##달리": 7593,
      "##기위한": 7594,
      "##받은": 7595,
      "##의일": 7596,
      "##성화": 7597,
      "##시절": 7598,
      "##보장": 7599,
      "##보유": 7600,
      "##메일": 7601,
      "##건강": 7602,
      "##휴대전": 7603,
      "##번호": 7604,
      "##검증": 7605,
      "##과정에서": 7606,
      "##개최했다": 7607,
      "\u0017\u0003": 7608,
      "21": 7609,
      "고강조했다": 7610,
      "전차": 7611,
      "중령": 7612,
      "##양성": 7613,
      "##지고": 7614,
      "##에어": 7615,
      "##기초": 7616,
      "##정확": 7617,
      "##의장": 7618,
      "##조원": 7619,
      "##실제": 7620,
      "##확산": 7621,
      "##형태": 7622,
      "##발견": 7623,
      "##타격": 7624,
      "##러운": 7625,
      "##\b\b": 7626,
      "2025": 7627,
      "##에게는": 7628,
      "##비롯한": 7629,
      "##인공지능": 7630,
      "##ing": 7631,
      "이원준기자": 7632,
      "11": 7633,
      "14": 7634,
      "라며": 7635,
      "방위": 7636,
      "안전": 7637,
      "전우": 7638,
      "전략": 7639,
      "한편": 7640,
      "호주": 7641,
      "환경": 7642,
      "##사에서": 7643,
      "##우려": 7644,
      "##를지": 7645,
      "##지털": 7646,
      "##아버": 7647,
      "##해도": 7648,
      "##드시": 7649,
      "##자부": 7650,
      "##자산": 7651,
      "##리즈": 7652,
      "##23": 7653,
      "##내는": 7654,
      "##가있다": 7655,
      "##수단": 7656,
      "##보급": 7657,
      "##FN": 7658,
      "##되고있다": 7659,
      "##포병": 7660,
      "##최종": 7661,
      "##\u0015\u0017": 7662,
      "2023년": 7663,
      "##항공기": 7664,
      "##활용한": 7665,
      "##대표팀": 7666,
      "##중심으로": 7667,
      "##바란다": 7668,
      "the": 7669,
      "##라마": 7670,
      "##재된": 7671,
      "##달라": 7672,
      "##에입": 7673,
      "##기고": 7674,
      "##자원": 7675,
      "##21": 7676,
      "##영역": 7677,
      "##은행": 7678,
      "##현지": 7679,
      "##시청": 7680,
      "##소속": 7681,
      "##보인다": 7682,
      "##형성": 7683,
      "##작가": 7684,
      "##폭발": 7685,
      "##향해": 7686,
      "##박물관": 7687,
      "##관람": 7688,
      "##탐지": 7689,
      "##풍선": 7690,
      "##\u0014\u0015\u0017": 7691,
      "##\u0010\u0016\u0014\u0015\u0017": 7692,
      "##의미를": 7693,
      "##성과를": 7694,
      "##참전용사": 7695,
      "##위원회": 7696,
      "##역량을": 7697,
      "\u0014\u0013": 7698,
      "12": 7699,
      "##침투": 7700,
      "##받는": 7701,
      "##스는": 7702,
      "##도서": 7703,
      "##위기": 7704,
      "##의주": 7705,
      "##마트": 7706,
      "##방호": 7707,
      "##수송": 7708,
      "##성은": 7709,
      "##파트": 7710,
      "##주택": 7711,
      "##했지만": 7712,
      "##인물": 7713,
      "##득점": 7714,
      "##피아": 7715,
      "##31일": 7716,
      "##is": 7717,
      "##협회": 7718,
      "##에서의": 7719,
      "##미국의": 7720,
      "##을보여": 7721,
      "##관계자": 7722,
      "병영의창": 7723,
      "##let": 7724,
      "##하기로했다": 7725,
      "##휴대전화": 7726,
      "김해": 7727,
      "방사청": 7728,
      "에게": 7729,
      "오늘": 7730,
      "인터": 7731,
      "##이트": 7732,
      "##전차": 7733,
      "##전반": 7734,
      "##르게": 7735,
      "##스럽": 7736,
      "##정의": 7737,
      "##조건": 7738,
      "##올라": 7739,
      "##공병": 7740,
      "##병사": 7741,
      "##일반": 7742,
      "##성의": 7743,
      "##시민": 7744,
      "##요청": 7745,
      "##경비": 7746,
      "##얼마": 7747,
      "##또는": 7748,
      "##관심": 7749,
      "##차관": 7750,
      "##그는": 7751,
      "##누구": 7752,
      "##깊은": 7753,
      "##봉사": 7754,
      "##정보를": 7755,
      "경력": 7756,
      "시간": 7757,
      "연구": 7758,
      "오른": 7759,
      "##군가": 7760,
      "##군생활": 7761,
      "##이이": 7762,
      "##을구": 7763,
      "##결승": 7764,
      "##연습": 7765,
      "##우선": 7766,
      "##스터": 7767,
      "##위치": 7768,
      "##해나가": 7769,
      "##드러": 7770,
      "##회담": 7771,
      "##어느": 7772,
      "##실험": 7773,
      "##흥민": 7774,
      "##압도": 7775,
      "##응급": 7776,
      "##SG": 7777,
      "##투자": 7778,
      "##협상": 7779,
      "##접근": 7780,
      "##전투비행단": 7781,
      "##교육을": 7782,
      "##12일": 7783,
      "훈련은": 7784,
      "##참모총": 7785,
      "##세미나": 7786,
      "개인": 7787,
      "다음": 7788,
      "었다": 7789,
      "##하지만": 7790,
      "##을내": 7791,
      "##상징": 7792,
      "##전방": 7793,
      "##전환": 7794,
      "##지면": 7795,
      "##정이": 7796,
      "##미군": 7797,
      "##일을": 7798,
      "##시장": 7799,
      "##시도": 7800,
      "##경연": 7801,
      "##여명": 7802,
      "##인터": 7803,
      "##개정": 7804,
      "##편성": 7805,
      "##피언": 7806,
      "##바다": 7807,
      "##tr": 7808,
      "##ou": 7809,
      "##국가안보": 7810,
      "지난달": 7811,
      "##무기체계": 7812,
      "##장비를": 7813,
      "22": 7814,
      "MLB": 7815,
      "TV": 7816,
      "가장": 7817,
      "그런": 7818,
      "합참": 7819,
      "##하거나": 7820,
      "##전단": 7821,
      "##를가": 7822,
      "##아시아": 7823,
      "##스스로": 7824,
      "##해군의": 7825,
      "##의도": 7826,
      "##조금": 7827,
      "##회원": 7828,
      "##어떻게": 7829,
      "##학년": 7830,
      "##마무리": 7831,
      "##할계획이다": 7832,
      "##수의": 7833,
      "##요원": 7834,
      "##보안": 7835,
      "##되고": 7836,
      "##각종": 7837,
      "##설계": 7838,
      "##래식": 7839,
      "##릭스": 7840,
      "##독자": 7841,
      "##목적": 7842,
      "##수있습니다": 7843,
      "##는것이": 7844,
      "##\u0002\u0002\u0002\u0002": 7845,
      "##절차를": 7846,
      "',": 7847,
      "'(": 7848,
      "50": 7849,
      "대령": 7850,
      "지휘": 7851,
      "태평양": 7852,
      "프랑스": 7853,
      "회의": 7854,
      "##군을": 7855,
      "##하지": 7856,
      "##상의": 7857,
      "##상륙": 7858,
      "##전장": 7859,
      "##정도": 7860,
      "##제안": 7861,
      "##부가": 7862,
      "##부담": 7863,
      "##부족": 7864,
      "##방공": 7865,
      "##소비": 7866,
      "##통과": 7867,
      "##트리": 7868,
      "##모델": 7869,
      "##환자": 7870,
      "##함으로써": 7871,
      "##추모": 7872,
      "##반복": 7873,
      "##반드시": 7874,
      "##AM": 7875,
      "##10년": 7876,
      "##군사령": 7877,
      "##경기도": 7878,
      "##의견을": 7879,
      "##letter": 7880,
      "기관": 7881,
      "앞서": 7882,
      "조아미": 7883,
      "##이름": 7884,
      "##있어": 7885,
      "##대중": 7886,
      "##대신": 7887,
      "##용산": 7888,
      "##우는": 7889,
      "##에들어": 7890,
      "##에참여": 7891,
      "##떠한": 7892,
      "##학습": 7893,
      "##실에서": 7894,
      "##동참": 7895,
      "##키는": 7896,
      "##79": 7897,
      "##들도": 7898,
      "##파리": 7899,
      "##주변": 7900,
      "##금융": 7901,
      "##서를": 7902,
      "##했으며": 7903,
      "##선을": 7904,
      "##인을": 7905,
      "##인해": 7906,
      "##업체": 7907,
      "##본다": 7908,
      "##범죄": 7909,
      "##데이": 7910,
      "##점에서": 7911,
      "##ac": 7912,
      "##ec": 7913,
      "##갑차": 7914,
      "##\u0011\u001a": 7915,
      "##부대를": 7916,
      "##에따른": 7917,
      "##전략적": 7918,
      "##주관으로": 7919,
      "##최초로": 7920,
      "23": 7921,
      "䄠㵍": 7922,
      "먼저": 7923,
      "이스라엘": 7924,
      "장비": 7925,
      "##다운": 7926,
      "##을이어": 7927,
      "##전국": 7928,
      "##단이": 7929,
      "##우스": 7930,
      "##없었다": 7931,
      "##받았다": 7932,
      "##위는": 7933,
      "##해병": 7934,
      "##자료": 7935,
      "##올리": 7936,
      "##28": 7937,
      "##부처": 7938,
      "##가이": 7939,
      "##은물론": 7940,
      "##수는": 7941,
      "##소를": 7942,
      "##채무": 7943,
      "##매년": 7944,
      "##인근": 7945,
      "##명한": 7946,
      "##포탄": 7947,
      "##쉽게": 7948,
      "##민주": 7949,
      "##규정": 7950,
      "##\u0019\u0016": 7951,
      "##부대는": 7952,
      "##장병들은": 7953,
      "##군사관": 7954,
      "##대비태세를": 7955,
      "북한의": 7956,
      "관련": 7957,
      "기존": 7958,
      "대통령": 7959,
      "따라": 7960,
      "사업": 7961,
      "이란": 7962,
      "##군에": 7963,
      "##상병": 7964,
      "##체육": 7965,
      "##에대응": 7966,
      "##나누": 7967,
      "##도있다": 7968,
      "##자녀": 7969,
      "##병영": 7970,
      "##내부": 7971,
      "##동시에": 7972,
      "##오늘": 7973,
      "##화생방": 7974,
      "##시티": 7975,
      "##확장": 7976,
      "##통한": 7977,
      "##머니": 7978,
      "##거쳐": 7979,
      "##모색": 7980,
      "##치열": 7981,
      "##인트": 7982,
      "##발송": 7983,
      "##릭터": 7984,
      "##53": 7985,
      "##협조": 7986,
      "##re": 7987,
      "##긴밀": 7988,
      "##부대가": 7989,
      "##지않은": 7990,
      "##시간을": 7991,
      "##관계자는": 7992,
      "##가능한": 7993,
      "##정신전력": 7994,
      "사진제공": 7995,
      "##최고의": 7996,
      "##을맞아": 7997,
      "보훈부": 7998,
      "김해령": 7999
    }
  }
}